// ===================================================
//   AUTO-GENERATED FILE — DO NOT EDIT MANUALLY
//   Generated by convert_to_header.py
//   Include this file in your Arduino sketch folder
// ===================================================

#ifndef FALL_MODEL_H
#define FALL_MODEL_H

#include <stdint.h>

// ── Model size ──────────────────────────────────────
#define MODEL_SIZE 13464

// ── TFLite model data ────────────────────────────────
// This is the actual neural network stored as bytes
const uint8_t fall_model_data[] = {
  0x1c, 0x00, 0x00, 0x00, 0x54, 0x46, 0x4c, 0x33, 0x14, 0x00, 0x20, 0x00, 0x1c, 0x00, 0x18, 0x00, 0x14, 0x00, 0x10, 0x00, 0x0c, 0x00, 0x00, 0x00, 0x08, 0x00, 0x04, 0x00, 0x14, 0x00, 0x00, 0x00, 0x1c, 0x00, 0x00, 0x00, 0x88, 0x00, 0x00, 0x00, 0xe0, 0x00, 0x00, 0x00, 0x14, 0x1e, 0x00, 0x00, 0x24, 0x1e, 0x00, 0x00, 0xfc, 0x33, 0x00, 0x00, 0x03, 0x00, 0x00, 0x00, 0x01, 0x00, 0x00, 0x00, 0x04, 0x00, 0x00, 0x00, 0x72, 0xe1, 0xff, 0xff, 0x0c, 0x00, 0x00, 0x00, 0x1c, 0x00, 0x00, 0x00, 0x3c, 0x00, 0x00, 0x00, 0x0f, 0x00, 0x00, 0x00, 0x73, 0x65, 0x72, 0x76, 0x69, 0x6e, 0x67, 0x5f, 0x64, 0x65, 0x66, 0x61, 0x75, 0x6c, 0x74, 0x00, 0x01, 0x00, 0x00, 0x00, 0x04, 0x00, 0x00, 0x00, 0x94, 0xff, 0xff, 0xff, 0x0f, 0x00, 0x00, 0x00, 0x04, 0x00, 0x00, 0x00, 0x08, 0x00, 0x00, 0x00, 0x6f, 0x75, 0x74, 0x70, 0x75, 0x74, 0x5f, 0x30, 0x00, 0x00, 0x00, 0x00, 0x01, 0x00, 0x00, 0x00, 0x04, 0x00, 0x00, 0x00, 0x72, 0xe2, 0xff, 0xff, 0x04, 0x00, 0x00, 0x00, 0x0b, 0x00, 0x00, 0x00, 0x69, 0x6e, 0x70, 0x75, 0x74, 0x5f, 0x6c, 0x61, 0x79, 0x65, 0x72, 0x00, 0x02, 0x00, 0x00, 0x00, 0x34, 0x00, 0x00, 0x00, 0x04, 0x00, 0x00, 0x00, 0xdc, 0xff, 0xff, 0xff, 0x12, 0x00, 0x00, 0x00, 0x04, 0x00, 0x00, 0x00, 0x13, 0x00, 0x00, 0x00, 0x43, 0x4f, 0x4e, 0x56, 0x45, 0x52, 0x53, 0x49, 0x4f, 0x4e, 0x5f, 0x4d, 0x45, 0x54, 0x41, 0x44, 0x41, 0x54, 0x41, 0x00, 0x08, 0x00, 0x0c, 0x00, 0x08, 0x00, 0x04, 0x00, 0x08, 0x00, 0x00, 0x00, 0x11, 0x00, 0x00, 0x00, 0x04, 0x00, 0x00, 0x00, 0x13, 0x00, 0x00, 0x00, 0x6d, 0x69, 0x6e, 0x5f, 0x72, 0x75, 0x6e, 0x74, 0x69, 0x6d, 0x65, 0x5f, 0x76, 0x65, 0x72, 0x73, 0x69, 0x6f, 0x6e, 0x00, 0x13, 0x00, 0x00, 0x00, 0x30, 0x1d, 0x00, 0x00, 0x28, 0x1d, 0x00, 0x00, 0x14, 0x1d, 0x00, 0x00, 0xec, 0x1c, 0x00, 0x00, 0x9c, 0x1c, 0x00, 0x00, 0x8c, 0x1a, 0x00, 0x00, 0xfc, 0x19, 0x00, 0x00, 0xec, 0x11, 0x00, 0x00, 0xdc, 0x10, 0x00, 0x00, 0xcc, 0x00, 0x00, 0x00, 0xc4, 0x00, 0x00, 0x00, 0xbc, 0x00, 0x00, 0x00, 0xb4, 0x00, 0x00, 0x00, 0xac, 0x00, 0x00, 0x00, 0xa4, 0x00, 0x00, 0x00, 0x9c, 0x00, 0x00, 0x00, 0x94, 0x00, 0x00, 0x00, 0x74, 0x00, 0x00, 0x00, 0x04, 0x00, 0x00, 0x00, 0x36, 0xe3, 0xff, 0xff, 0x04, 0x00, 0x00, 0x00, 0x60, 0x00, 0x00, 0x00, 0x0c, 0x00, 0x00, 0x00, 0x08, 0x00, 0x0e, 0x00, 0x08, 0x00, 0x04, 0x00, 0x08, 0x00, 0x00, 0x00, 0x10, 0x00, 0x00, 0x00, 0x28, 0x00, 0x00, 0x00, 0x00, 0x00, 0x06, 0x00, 0x08, 0x00, 0x04, 0x00, 0x06, 0x00, 0x00, 0x00, 0x04, 0x00, 0x00, 0x00, 0x01, 0x00, 0x00, 0x00, 0xeb, 0x03, 0x00, 0x00, 0x0c, 0x00, 0x18, 0x00, 0x14, 0x00, 0x10, 0x00, 0x0c, 0x00, 0x04, 0x00, 0x0c, 0x00, 0x00, 0x00, 0x2d, 0x22, 0x3f, 0x9e, 0xf1, 0x79, 0x0b, 0xd0, 0x02, 0x00, 0x00, 0x00, 0x02, 0x00, 0x00, 0x00, 0x04, 0x00, 0x00, 0x00, 0x06, 0x00, 0x00, 0x00, 0x32, 0x2e, 0x32, 0x31, 0x2e, 0x30, 0x00, 0x00, 0xa2, 0xe3, 0xff, 0xff, 0x04, 0x00, 0x00, 0x00, 0x10, 0x00, 0x00, 0x00, 0x31, 0x2e, 0x31, 0x34, 0x2e, 0x30, 0x00, 0x00, 0x00, 0x00, 0x00, 0x00, 0x00, 0x00, 0x00, 0x00, 0xe8, 0xcd, 0xff, 0xff, 0xec, 0xcd, 0xff, 0xff, 0xf0, 0xcd, 0xff, 0xff, 0xf4, 0xcd, 0xff, 0xff, 0xf8, 0xcd, 0xff, 0xff, 0xfc, 0xcd, 0xff, 0xff, 0x00, 0xce, 0xff, 0xff, 0xda, 0xe3, 0xff, 0xff, 0x04, 0x00, 0x00, 0x00, 0x00, 0x10, 0x00, 0x00, 0xfc, 0xb0, 0xf8, 0xe4, 0xa4, 0xb5, 0xed, 0xf2, 0xa1, 0xf8, 0x32, 0xe3, 0xde, 0x4a, 0x01, 0x0d, 0xf3, 0x31, 0xd1, 0xd7, 0xba, 0xbd, 0xd4, 0xb2, 0x49, 0x47, 0x9e, 0xca, 0x6d, 0xda, 0xfb, 0x3e, 0x12, 0xe4, 0xd0, 0x20, 0x9e, 0x00, 0x17, 0xda, 0xf5, 0x25, 0x3d, 0xac, 0xdc, 0xc9, 0xf6, 0xed, 0x45, 0x7f, 0x0d, 0xc7, 0xde, 0x03, 0x02, 0x66, 0x0f, 0xab, 0x8d, 0x49, 0xfa, 0x41, 0xe8, 0x85, 0x0f, 0xc5, 0xda, 0x0f, 0x30, 0x13, 0x92, 0x9c, 0xce, 0xd6, 0xde, 0x28, 0xcf, 0x11, 0x17, 0xb4, 0xe0, 0x18, 0x1f, 0xc7, 0x32, 0x1b, 0x0c, 0xfd, 0x1b, 0xef, 0xff, 0xf2, 0xe0, 0xec, 0x5b, 0xaa, 0xf1, 0x22, 0x4a, 0xfb, 0xf1, 0x02, 0x0c, 0xd4, 0xfe, 0x1f, 0xf2, 0x00, 0x43, 0x0a, 0xce, 0xe4, 0x34, 0xb0, 0xfe, 0xcc, 0xcc, 0xec, 0xcf, 0xe9, 0x4f, 0xe4, 0xcc, 0x81, 0x2c, 0xd1, 0x34, 0xad, 0xd2, 0x09, 0x14, 0xd0, 0x57, 0x21, 0x63, 0x16, 0x7f, 0x40, 0x4c, 0xf9, 0x34, 0x09, 0xdc, 0x3c, 0xb8, 0xf7, 0x48, 0xdc, 0x20, 0x0c, 0x10, 0x0c, 0xff, 0x3e, 0x1e, 0x23, 0xcf, 0xde, 0x3e, 0x39, 0x1d, 0x27, 0x34, 0xc5, 0xcc, 0x5c, 0x0e, 0x42, 0xf5, 0xc6, 0x0e, 0xf2, 0x32, 0xf5, 0x2c, 0x03, 0xbd, 0x1c, 0xc6, 0xd1, 0x52, 0x50, 0x50, 0xc4, 0xa1, 0xbc, 0xeb, 0xfd, 0x0f, 0x25, 0xd0, 0x95, 0xd8, 0x05, 0x05, 0x9c, 0x7f, 0xec, 0x3f, 0x2b, 0x00, 0x37, 0x47, 0xc3, 0x0f, 0xc9, 0x01, 0x2e, 0xdd, 0x21, 0x31, 0x90, 0xea, 0x6d, 0xf6, 0x1e, 0xed, 0x15, 0xdf, 0x0c, 0xda, 0x07, 0x29, 0x44, 0xd5, 0x3b, 0xb7, 0x21, 0xd2, 0x22, 0x4d, 0xf2, 0x28, 0x2b, 0xff, 0x9c, 0x18, 0xea, 0x35, 0x05, 0xba, 0x21, 0xda, 0xea, 0x6f, 0x1a, 0x1f, 0xad, 0xef, 0xbb, 0xeb, 0x25, 0x43, 0xee, 0x0e, 0x04, 0xa0, 0x0c, 0xf2, 0xae, 0xd4, 0xe1, 0x12, 0x3e, 0x20, 0x35, 0x0e, 0x0e, 0xc5, 0x12, 0xe5, 0x18, 0x08, 0x2f, 0xf3, 0x45, 0xfa, 0xb4, 0x04, 0xfd, 0xb0, 0x21, 0x08, 0x2f, 0x39, 0xcc, 0x8f, 0x02, 0x18, 0x03, 0x90, 0x28, 0x0a, 0x24, 0xef, 0x43, 0x49, 0xfd, 0xa1, 0xfb, 0xcb, 0x26, 0xb1, 0x04, 0xa4, 0x02, 0x29, 0x15, 0x81, 0xbf, 0x1a, 0xc9, 0xa9, 0xe4, 0xf5, 0x71, 0xa7, 0x53, 0xb3, 0x52, 0xf7, 0x1b, 0x2e, 0x23, 0xf9, 0xec, 0xed, 0xe7, 0x7b, 0xc1, 0x01, 0x7f, 0x37, 0xfd, 0xfe, 0x19, 0xf2, 0xf9, 0x25, 0x29, 0x14, 0x30, 0x13, 0x0a, 0xf6, 0x09, 0x07, 0x20, 0xd9, 0x0c, 0x26, 0xc3, 0xce, 0xf7, 0x15, 0xd8, 0x22, 0xee, 0xfc, 0xdb, 0xf5, 0xe2, 0x00, 0xe5, 0xf1, 0xf5, 0xe9, 0x33, 0x3b, 0xdc, 0x3a, 0x23, 0xd2, 0x0a, 0x20, 0xe2, 0xf9, 0xdc, 0xe5, 0x3a, 0xb7, 0x1a, 0x11, 0xf6, 0xd0, 0xc7, 0xfc, 0xcd, 0xdf, 0x29, 0xaa, 0x16, 0xe5, 0xc4, 0x44, 0x4e, 0xfd, 0x46, 0x54, 0xe7, 0x21, 0xd2, 0x23, 0xb1, 0x07, 0x49, 0x8c, 0xca, 0xd2, 0x3c, 0xf4, 0xe7, 0x34, 0x31, 0x4d, 0xc9, 0x15, 0x81, 0x2b, 0x4e, 0xc9, 0xeb, 0x90, 0xca, 0x03, 0xe3, 0xe5, 0xd0, 0x09, 0x0b, 0x8e, 0xae, 0x12, 0x01, 0x0d, 0x33, 0x1c, 0xf3, 0xe2, 0x3e, 0xbb, 0x12, 0x64, 0x68, 0x48, 0xf3, 0xea, 0xf9, 0xe0, 0xa5, 0x0b, 0xa9, 0xc7, 0xf3, 0x81, 0xca, 0xcd, 0x0f, 0xd5, 0x0b, 0xe4, 0x11, 0x38, 0xe1, 0xf9, 0x0f, 0xf6, 0xf7, 0x37, 0x38, 0xec, 0x14, 0x5c, 0xb8, 0x28, 0x28, 0x26, 0xe2, 0x0e, 0xb0, 0xdf, 0xdd, 0x34, 0x1c, 0xbf, 0xda, 0xef, 0x1c, 0x5c, 0x1c, 0x06, 0x41, 0x68, 0x01, 0x0e, 0x29, 0xbc, 0xf6, 0xdd, 0xd1, 0x38, 0x11, 0x3e, 0x54, 0xc8, 0x04, 0xed, 0x83, 0xd9, 0xde, 0x19, 0xb7, 0xe4, 0xfd, 0x09, 0x3c, 0xd5, 0x03, 0x27, 0x25, 0x81, 0x0b, 0x00, 0xda, 0xa7, 0xfd, 0x01, 0x45, 0xf6, 0x86, 0x00, 0x2e, 0xb2, 0xc8, 0xf5, 0xb6, 0xec, 0x2b, 0xdc, 0xf6, 0x11, 0x18, 0xe6, 0x0c, 0xe9, 0xb8, 0x10, 0x33, 0x10, 0xfc, 0x02, 0x14, 0xfb, 0xd5, 0xff, 0x1b, 0x12, 0x0d, 0x29, 0x04, 0xe0, 0x08, 0x35, 0xe2, 0xfe, 0x12, 0xf5, 0x17, 0x10, 0x57, 0x33, 0x43, 0xeb, 0x1a, 0xd0, 0x1a, 0x11, 0x09, 0x05, 0xee, 0x08, 0x22, 0x81, 0xfd, 0x5a, 0x17, 0xf7, 0xfa, 0x0b, 0xdc, 0x07, 0xb9, 0x11, 0xb8, 0x19, 0xbe, 0x35, 0x0d, 0xaa, 0xe2, 0x0c, 0x10, 0x11, 0xf1, 0x0c, 0x04, 0xf4, 0x04, 0xd7, 0x99, 0x3b, 0x4b, 0xe1, 0x32, 0xb6, 0x90, 0xff, 0x18, 0xe9, 0xf1, 0xf9, 0x28, 0xbc, 0xfb, 0x26, 0x2b, 0x19, 0xbf, 0x22, 0x2b, 0x63, 0x5e, 0xb8, 0xd2, 0x47, 0x1e, 0x14, 0xb4, 0x1d, 0xd5, 0x00, 0x13, 0x20, 0x10, 0xc7, 0x05, 0x1c, 0xe7, 0x81, 0xf2, 0x21, 0xdc, 0xd0, 0x0e, 0x15, 0xdc, 0xe5, 0xbb, 0x10, 0x19, 0xd2, 0xd6, 0xf0, 0xbb, 0xf9, 0x06, 0xf3, 0x1b, 0x08, 0xf6, 0xec, 0x11, 0x01, 0x0c, 0x2b, 0x2d, 0xdd, 0xfc, 0x15, 0x0b, 0xfd, 0xf1, 0x0e, 0xeb, 0xff, 0x0d, 0x01, 0xe2, 0x00, 0x45, 0x0e, 0xd2, 0xfe, 0x1d, 0xed, 0x49, 0xfc, 0x1a, 0x2a, 0x59, 0xf1, 0xf3, 0x15, 0x02, 0x3e, 0xae, 0x0b, 0x2b, 0x17, 0xbb, 0x2a, 0xc8, 0x20, 0xb1, 0xf6, 0xed, 0x71, 0x12, 0xe6, 0x2a, 0x48, 0x24, 0x97, 0x9e, 0x02, 0xef, 0xd8, 0x47, 0x12, 0x8c, 0x28, 0x1a, 0x8e, 0xf7, 0xd0, 0xc0, 0x08, 0x42, 0x22, 0xdd, 0xdf, 0xf2, 0xfd, 0x15, 0x22, 0xe2, 0x48, 0x07, 0x49, 0x23, 0x08, 0x2c, 0xd5, 0x47, 0xfb, 0xd3, 0xd6, 0x15, 0xe3, 0x55, 0x46, 0x9a, 0x81, 0xdf, 0xac, 0xff, 0xf4, 0xcc, 0xe5, 0xe3, 0x04, 0x0e, 0xd5, 0x0e, 0x13, 0xce, 0x0d, 0x26, 0x44, 0x09, 0x0f, 0xef, 0x25, 0x31, 0xe0, 0x12, 0xf7, 0xc7, 0x17, 0xf8, 0x3a, 0x00, 0x0d, 0x0f, 0x37, 0xe8, 0xcb, 0xf6, 0xeb, 0x09, 0x81, 0xf0, 0x40, 0xed, 0xc1, 0x03, 0x27, 0x38, 0x2c, 0x23, 0xd9, 0xe3, 0x02, 0xcd, 0x06, 0xcd, 0xba, 0xf1, 0x02, 0x1b, 0xc3, 0xd4, 0x24, 0x21, 0x51, 0xaa, 0x1a, 0xff, 0xbe, 0x2f, 0x08, 0xcf, 0xf7, 0xa8, 0xe4, 0x99, 0x18, 0xfa, 0x4d, 0x23, 0x61, 0x12, 0x51, 0x0b, 0x70, 0x42, 0x4c, 0xf8, 0x47, 0x38, 0x27, 0x42, 0xf8, 0x42, 0x50, 0xd4, 0x5c, 0x0f, 0x52, 0x5e, 0x10, 0x4a, 0xab, 0x0a, 0x51, 0x05, 0xde, 0x56, 0x0d, 0x21, 0x4a, 0xe5, 0xf4, 0x09, 0x3b, 0xd0, 0x4b, 0xcd, 0x6f, 0x18, 0xcf, 0x3d, 0xd6, 0xe5, 0x4b, 0xff, 0x7f, 0xf7, 0xfc, 0xd9, 0x3b, 0xc7, 0x02, 0x5d, 0xd8, 0xd8, 0xdd, 0x66, 0x09, 0x01, 0x23, 0xad, 0x04, 0x44, 0xf0, 0x4e, 0xb1, 0x28, 0xb3, 0xfc, 0xe4, 0x53, 0xd7, 0x5b, 0x02, 0x6a, 0xcb, 0x47, 0xa0, 0x12, 0xfd, 0x60, 0x0d, 0x02, 0x27, 0xff, 0xbb, 0xe5, 0x0a, 0xd1, 0x12, 0xf3, 0x15, 0xd1, 0x29, 0xf0, 0xd3, 0xff, 0x16, 0xe5, 0xe2, 0x0b, 0x8a, 0x4b, 0xeb, 0xe3, 0xdb, 0x30, 0x81, 0xc2, 0xed, 0x14, 0xf9, 0xc2, 0xfd, 0x78, 0x8c, 0x12, 0xfe, 0x09, 0x90, 0xe5, 0xfa, 0xb1, 0x81, 0x01, 0xf7, 0x0b, 0x1b, 0xf4, 0xe9, 0x0f, 0xec, 0x15, 0xfc, 0xf8, 0xf5, 0xfd, 0x0f, 0x08, 0xf4, 0x0e, 0x06, 0x00, 0x1c, 0x0e, 0x21, 0x07, 0x12, 0x18, 0xf6, 0xf5, 0xfc, 0xf7, 0xe7, 0xef, 0xce, 0xff, 0xfc, 0xe5, 0x1e, 0xf8, 0xf4, 0x0a, 0x22, 0x0a, 0x08, 0xe9, 0x07, 0xfe, 0xf6, 0x0a, 0x30, 0x0d, 0x11, 0x22, 0xe5, 0xf4, 0x05, 0x14, 0xe4, 0xfe, 0x04, 0x04, 0xfc, 0x28, 0x1c, 0x13, 0x0a, 0x19, 0xf4, 0x0f, 0xef, 0x1f, 0x20, 0xcc, 0x81, 0x01, 0x11, 0x15, 0xcf, 0x1f, 0x19, 0x16, 0x03, 0x40, 0xaf, 0xeb, 0x09, 0x2e, 0xf9, 0x15, 0xe3, 0xf7, 0x19, 0x09, 0x05, 0xe3, 0x0b, 0xfc, 0xf5, 0x0a, 0x04, 0xf6, 0x0e, 0x1b, 0x37, 0x1b, 0xce, 0xf8, 0x0a, 0xeb, 0xe5, 0xb3, 0x15, 0x02, 0xa8, 0xce, 0x08, 0xb0, 0x11, 0x20, 0xef, 0x3c, 0xd9, 0xff, 0x08, 0x3a, 0xde, 0x46, 0x0d, 0xc9, 0x37, 0x26, 0x18, 0xfd, 0x0c, 0x2e, 0x64, 0xb9, 0x7f, 0xf6, 0x0e, 0x06, 0x30, 0xfe, 0x2b, 0x9f, 0x3c, 0x55, 0x37, 0x44, 0xfd, 0x7b, 0x45, 0x34, 0x47, 0x43, 0xf4, 0x0d, 0x4c, 0x6f, 0x0e, 0xe6, 0x13, 0x27, 0x36, 0x6a, 0x32, 0xf6, 0xdc, 0x26, 0xd9, 0x28, 0x00, 0xde, 0x3a, 0x65, 0x27, 0xb9, 0x57, 0x34, 0x50, 0xeb, 0xbe, 0xd0, 0xd7, 0x2f, 0xff, 0xcf, 0xea, 0x1d, 0xd3, 0x0d, 0x37, 0xb2, 0x74, 0x0c, 0x43, 0xea, 0xb9, 0x55, 0x32, 0xca, 0x2f, 0xc3, 0xf0, 0x59, 0xed, 0xf9, 0x17, 0x9a, 0x2c, 0x7f, 0x0a, 0xfd, 0xf4, 0xf5, 0x4b, 0x39, 0x3b, 0x1d, 0x02, 0x53, 0xe4, 0x21, 0xb4, 0xff, 0x12, 0x17, 0x00, 0x0d, 0xf9, 0xc8, 0xc7, 0x05, 0xeb, 0xff, 0x4c, 0x40, 0xee, 0xf7, 0xb3, 0xf7, 0xfe, 0x23, 0x3c, 0x33, 0xe7, 0xb7, 0xf1, 0x4b, 0x6f, 0xbe, 0x09, 0xfa, 0x10, 0x00, 0x13, 0x81, 0x11, 0xd7, 0xc6, 0x1f, 0x1f, 0x17, 0x3d, 0xc6, 0x37, 0x11, 0xe8, 0x4d, 0x1a, 0xdc, 0xed, 0x9e, 0xf4, 0x65, 0xf7, 0x05, 0x2b, 0x06, 0x1f, 0xe5, 0x06, 0x2c, 0x4c, 0x09, 0x48, 0x1e, 0xc0, 0xeb, 0x32, 0xee, 0xff, 0x2a, 0x22, 0xfe, 0xf4, 0x1d, 0xfd, 0x18, 0x3d, 0x38, 0x0c, 0xb2, 0xe5, 0x2d, 0x6b, 0xf6, 0x4d, 0xf8, 0xee, 0xd4, 0x22, 0xcc, 0x58, 0x6b, 0x5a, 0xa9, 0x30, 0x0a, 0x01, 0x1e, 0xff, 0x1b, 0xbf, 0x30, 0x18, 0x0f, 0xeb, 0x3a, 0xc8, 0x0c, 0xf4, 0x14, 0x38, 0x12, 0xf0, 0x39, 0xf9, 0x12, 0x09, 0x16, 0xe9, 0x28, 0x16, 0x39, 0xd8, 0xce, 0xe5, 0x2a, 0xf7, 0x48, 0xf0, 0xe4, 0x2d, 0x02, 0x11, 0xeb, 0x1c, 0x0e, 0xda, 0x1c, 0xec, 0x0b, 0xa1, 0x35, 0x25, 0xdd, 0x0c, 0xf3, 0x81, 0xf1, 0x00, 0xd5, 0x4b, 0x37, 0x0f, 0xe9, 0xda, 0x1a, 0xf1, 0xd9, 0xd8, 0x35, 0xcc, 0xf0, 0xa0, 0x1c, 0xcc, 0x1c, 0xda, 0x5d, 0xed, 0xad, 0x81, 0x38, 0xeb, 0x16, 0xf0, 0xe6, 0x2b, 0xef, 0xbb, 0x31, 0xf7, 0x37, 0xff, 0x3f, 0x08, 0xfc, 0x31, 0x1c, 0x11, 0x1f, 0xe0, 0x04, 0x99, 0x32, 0xb1, 0x0c, 0xee, 0x8c, 0xa0, 0x52, 0xd0, 0xd9, 0x27, 0xee, 0xf9, 0x0f, 0x13, 0xd2, 0xbf, 0xad, 0xb6, 0xf1, 0xbc, 0xee, 0xe9, 0xc9, 0xc1, 0x69, 0xb4, 0xdf, 0x21, 0xf3, 0x0c, 0xf7, 0x44, 0x26, 0x0a, 0x0a, 0xa5, 0xf9, 0x0b, 0xfd, 0x5c, 0xed, 0x90, 0x20, 0xfc, 0xd1, 0x0c, 0x44, 0x13, 0x7f, 0xb6, 0x6a, 0xf4, 0x45, 0x1a, 0x49, 0xd4, 0xcb, 0xef, 0xeb, 0x19, 0x14, 0x0e, 0xf2, 0x95, 0xd9, 0x17, 0xf8, 0xfd, 0xf2, 0xfc, 0x06, 0x20, 0x21, 0xef, 0xfd, 0x3d, 0x23, 0x2b, 0x95, 0x40, 0x1a, 0xa4, 0x2b, 0x0b, 0xeb, 0x39, 0x35, 0xbc, 0x15, 0xb3, 0xd0, 0xf5, 0x0e, 0x7f, 0x08, 0xc6, 0x7c, 0x63, 0xfc, 0x14, 0xac, 0x32, 0xf2, 0xf6, 0xf5, 0x3b, 0x27, 0xf2, 0x24, 0x2c, 0x3f, 0xaa, 0xbc, 0xdb, 0xeb, 0xf0, 0x0d, 0xdc, 0x19, 0x61, 0xe1, 0x96, 0xf2, 0x0f, 0xbe, 0xe7, 0x30, 0xf9, 0x03, 0x2d, 0x1c, 0x1a, 0x4b, 0xec, 0x26, 0xd9, 0xad, 0xbd, 0x0d, 0x08, 0x2c, 0xf2, 0x21, 0xf7, 0x24, 0xfb, 0x1a, 0xd5, 0x0e, 0xf3, 0x8c, 0xad, 0xe9, 0xf0, 0xdc, 0x27, 0xb2, 0xa8, 0x1c, 0xd1, 0x05, 0xab, 0xe1, 0xe7, 0x32, 0xc9, 0xe3, 0xcc, 0xbf, 0x14, 0x1a, 0xec, 0x07, 0xd2, 0xbf, 0xf2, 0x12, 0xd8, 0x07, 0x29, 0xc4, 0x21, 0xf4, 0xf8, 0x23, 0xe1, 0x11, 0x02, 0xfc, 0xf8, 0xb7, 0xc6, 0x0d, 0xed, 0x28, 0x25, 0x12, 0xbb, 0xcc, 0xf6, 0xea, 0x12, 0xef, 0xe4, 0x1f, 0x36, 0x4a, 0x16, 0xe8, 0x37, 0xe6, 0xf8, 0x21, 0x0a, 0x11, 0xf3, 0x7f, 0x0a, 0xfb, 0xc2, 0xf3, 0xf4, 0xe3, 0xb7, 0x2b, 0xc8, 0xf7, 0xf2, 0x21, 0xcf, 0x3e, 0xc3, 0xdd, 0xfd, 0x0f, 0x00, 0x36, 0xca, 0xea, 0xd4, 0x1a, 0xd6, 0xc2, 0xf9, 0xeb, 0x28, 0x0e, 0xef, 0xeb, 0x2c, 0x26, 0xdd, 0xc9, 0x01, 0xbf, 0x19, 0xe1, 0xdb, 0x2e, 0xe4, 0xf2, 0x11, 0x09, 0x38, 0xe7, 0xfc, 0xbe, 0x02, 0xfb, 0x7f, 0x48, 0xd8, 0xc6, 0xf8, 0xc1, 0xe8, 0x12, 0xd8, 0x37, 0xfa, 0x34, 0xe6, 0x49, 0xd6, 0x12, 0x09, 0x44, 0x2b, 0xe0, 0x6b, 0x09, 0x28, 0xfc, 0x7f, 0xd2, 0x03, 0x1d, 0x67, 0x12, 0x18, 0x08, 0x37, 0x29, 0x2d, 0xbe, 0x1b, 0x47, 0x29, 0x39, 0x27, 0xe8, 0x5c, 0x13, 0x37, 0x36, 0xe8, 0x1e, 0x01, 0x0c, 0x33, 0xf5, 0xf6, 0x38, 0x25, 0xe2, 0x2b, 0xe7, 0xad, 0xc7, 0xc3, 0x33, 0xed, 0xf4, 0x0f, 0x07, 0xa7, 0x2b, 0x20, 0x95, 0x4c, 0x05, 0xb5, 0x0e, 0xeb, 0xef, 0x15, 0x2a, 0x0c, 0xcd, 0x2c, 0x03, 0x2b, 0xff, 0xdd, 0x19, 0xdb, 0x00, 0xa1, 0xd7, 0xf1, 0xb8, 0x81, 0x07, 0xfa, 0xeb, 0xca, 0xd1, 0x00, 0x1c, 0xf9, 0xf2, 0x10, 0xfc, 0xdd, 0xee, 0xfc, 0xfd, 0x18, 0x11, 0xf5, 0x0c, 0xeb, 0xfa, 0x02, 0x1c, 0xf2, 0xee, 0x0a, 0x02, 0x0b, 0xdd, 0xf0, 0x02, 0x0c, 0xe2, 0x26, 0x1e, 0xf9, 0xf9, 0x05, 0xc5, 0x02, 0xfc, 0x13, 0x2e, 0x09, 0xf7, 0xf0, 0x24, 0xe1, 0xe3, 0x1d, 0x16, 0x10, 0x39, 0x25, 0xc7, 0x9a, 0xd1, 0xd1, 0x23, 0x49, 0xef, 0x29, 0x3c, 0xc8, 0x25, 0x24, 0xf6, 0x5e, 0x26, 0xc3, 0x37, 0x0b, 0xe4, 0x14, 0x3c, 0xee, 0xff, 0xf5, 0xf7, 0xc1, 0xf0, 0xc1, 0x32, 0x1c, 0x40, 0xde, 0xf0, 0x2f, 0x0e, 0x29, 0x35, 0xcd, 0xe1, 0xb8, 0x3c, 0xf7, 0xda, 0xe1, 0x4d, 0xee, 0xd4, 0x0a, 0x29, 0xba, 0xd6, 0xb8, 0x0f, 0x45, 0x17, 0xec, 0x3c, 0xc2, 0xed, 0x81, 0xd2, 0x05, 0xad, 0xf9, 0xe8, 0xf4, 0x19, 0x51, 0x98, 0x91, 0x95, 0xc7, 0x1d, 0xe8, 0xce, 0xea, 0x0b, 0x20, 0x32, 0xec, 0x01, 0xeb, 0x1c, 0x3a, 0x5a, 0x20, 0xd6, 0xcc, 0x0d, 0xe2, 0xe8, 0x0c, 0xe2, 0x14, 0x11, 0x73, 0x16, 0xab, 0xcc, 0x04, 0xe2, 0x06, 0x28, 0x4d, 0x18, 0x45, 0xcc, 0xfe, 0xd5, 0x02, 0xe2, 0x2e, 0xf2, 0x45, 0x8d, 0xd5, 0x1b, 0x79, 0x81, 0xc1, 0xc8, 0xac, 0xb4, 0x27, 0x8e, 0xd6, 0x0b, 0x38, 0xe6, 0x21, 0xd5, 0x0e, 0x2f, 0xdd, 0x23, 0x32, 0xc2, 0xce, 0xfd, 0x02, 0x1b, 0x19, 0x45, 0x15, 0x34, 0xbd, 0x7f, 0x8a, 0x52, 0xf4, 0xdf, 0xba, 0xd1, 0xfe, 0xdb, 0xe5, 0x12, 0xfe, 0xf0, 0xb6, 0xd0, 0xe4, 0x17, 0x00, 0xc1, 0xe7, 0x10, 0xfe, 0x3f, 0xd5, 0xe1, 0x03, 0x16, 0x2b, 0xcc, 0x1b, 0xde, 0xeb, 0xc0, 0xbc, 0x00, 0xe3, 0x12, 0x0e, 0x21, 0xb7, 0xbf, 0x22, 0xda, 0xdf, 0xa3, 0xf9, 0x2c, 0xdb, 0x9a, 0x3c, 0x81, 0xe6, 0x11, 0xbc, 0x18, 0xd3, 0x2c, 0xf3, 0xe9, 0xe5, 0x09, 0x12, 0xc5, 0xf3, 0xb7, 0xf1, 0x5d, 0x0d, 0xd0, 0x3d, 0xfd, 0xcc, 0xab, 0x41, 0xfc, 0x6e, 0xf0, 0xd4, 0x16, 0x12, 0x85, 0x22, 0x2c, 0xfd, 0xb0, 0xbf, 0xf3, 0xe3, 0xf0, 0x04, 0x1e, 0x50, 0xa7, 0xc1, 0xf1, 0xe1, 0xe5, 0xc9, 0xaf, 0x0d, 0x14, 0x20, 0xba, 0xd9, 0x01, 0xfc, 0x11, 0x0a, 0x11, 0xd6, 0xf0, 0xda, 0x18, 0xe9, 0x19, 0xfe, 0xfb, 0xa9, 0xd9, 0x1f, 0x26, 0xf5, 0xd8, 0x5c, 0xeb, 0xf4, 0x50, 0x64, 0x85, 0x1b, 0xbe, 0xbd, 0x6d, 0xca, 0x4b, 0x5b, 0x3a, 0x8c, 0xf3, 0xf2, 0x19, 0x00, 0xbc, 0x0f, 0x4e, 0x11, 0x1e, 0x0c, 0xdd, 0xd5, 0xe3, 0x41, 0x18, 0x83, 0x14, 0xff, 0x51, 0x59, 0xa4, 0xdb, 0x6a, 0x2d, 0x0d, 0x53, 0x7f, 0x21, 0x20, 0xc3, 0x33, 0xbc, 0x3a, 0xef, 0x1f, 0xe2, 0xb3, 0x47, 0xdd, 0x43, 0x2e, 0x3c, 0xff, 0x3a, 0xf6, 0x2d, 0xe4, 0x56, 0x27, 0xcf, 0xd2, 0x0f, 0xe1, 0xeb, 0xef, 0x35, 0x11, 0x00, 0xdd, 0x16, 0xe3, 0xe3, 0x0e, 0x08, 0xee, 0x0a, 0x0d, 0x08, 0x2f, 0x09, 0xe6, 0xff, 0xe4, 0x26, 0xd4, 0x03, 0xe8, 0xee, 0xf4, 0x7f, 0x17, 0xa1, 0xe4, 0xf5, 0x02, 0x07, 0x3b, 0x2a, 0x28, 0xcd, 0xf8, 0xfd, 0x00, 0x15, 0x38, 0x14, 0xf6, 0x1d, 0x16, 0x08, 0xf7, 0xbc, 0x05, 0xe9, 0x18, 0xfe, 0xd4, 0xd7, 0x2a, 0xca, 0xf9, 0xfb, 0x26, 0x1f, 0x10, 0x00, 0x3e, 0xb5, 0x0f, 0x01, 0x25, 0x02, 0x1b, 0xf3, 0x0c, 0x28, 0xf5, 0xf5, 0x00, 0xf4, 0x04, 0x83, 0x03, 0x24, 0x15, 0xf9, 0xc1, 0x18, 0x02, 0x29, 0x17, 0x0f, 0x00, 0xcd, 0x1c, 0xe3, 0xa7, 0xfc, 0x2a, 0x8a, 0x11, 0xfb, 0x81, 0x1c, 0x3b, 0xd8, 0x44, 0x1b, 0x16, 0xc1, 0x53, 0x07, 0x94, 0xfe, 0xec, 0xa0, 0xfa, 0x09, 0xfc, 0x62, 0xdf, 0x30, 0x39, 0x5c, 0xf3, 0x2a, 0x00, 0xf1, 0x18, 0x12, 0x2e, 0x01, 0x04, 0x28, 0xf4, 0xfd, 0xd0, 0xe4, 0xda, 0xf9, 0x4a, 0x16, 0xde, 0xed, 0xef, 0x03, 0xd2, 0x0c, 0xa4, 0xbf, 0xdd, 0x06, 0x39, 0x0a, 0xb3, 0xf8, 0x17, 0x21, 0xd6, 0x40, 0x41, 0x57, 0xa5, 0xf6, 0x0f, 0xd5, 0x4d, 0x3a, 0xb4, 0xf9, 0x7f, 0xe2, 0xaa, 0x37, 0xa2, 0xce, 0x98, 0xd0, 0x31, 0x61, 0x2b, 0xf3, 0xf8, 0x52, 0xd5, 0x20, 0x39, 0x6b, 0xe0, 0xf1, 0x1d, 0x39, 0xce, 0xf6, 0x43, 0x21, 0x15, 0xff, 0x36, 0x1a, 0xa3, 0xe0, 0x03, 0x2d, 0x04, 0x13, 0xc7, 0x6b, 0xdb, 0xdd, 0x31, 0xbd, 0x1c, 0xbb, 0x89, 0x81, 0xfd, 0xff, 0xd1, 0x16, 0xd9, 0x43, 0x23, 0x60, 0x06, 0x16, 0xd6, 0x76, 0x13, 0x28, 0x15, 0x16, 0xb2, 0x6b, 0x6e, 0x9d, 0xfc, 0xfe, 0xec, 0x12, 0xd0, 0x28, 0xce, 0x3f, 0x2f, 0xdf, 0x1a, 0x8e, 0xd5, 0xf8, 0xaa, 0xee, 0xb5, 0xdd, 0x30, 0xe9, 0x19, 0x40, 0x81, 0xca, 0xf6, 0xf4, 0x1a, 0x0a, 0x5c, 0x47, 0x07, 0xf1, 0xcf, 0x51, 0x15, 0x3c, 0x2a, 0x97, 0xcd, 0x27, 0x07, 0x11, 0x43, 0xe1, 0x23, 0xb8, 0xbe, 0x25, 0xfc, 0x1e, 0x2c, 0xb9, 0x14, 0x09, 0xea, 0x03, 0x27, 0xfb, 0xbc, 0x2a, 0x87, 0x1d, 0x17, 0x16, 0xe8, 0x09, 0x81, 0xbb, 0x18, 0x3b, 0x97, 0xcb, 0xdd, 0x2b, 0xf1, 0x7e, 0xbc, 0x36, 0x1f, 0x2b, 0x0e, 0x0b, 0xdb, 0xe7, 0xee, 0x45, 0x0b, 0x70, 0x1d, 0x01, 0xe4, 0x16, 0xc1, 0x5a, 0x0e, 0x17, 0x11, 0x1c, 0x38, 0xef, 0xc0, 0xf4, 0xe0, 0x81, 0x0e, 0x15, 0xdb, 0x33, 0x09, 0x2a, 0x06, 0x25, 0x37, 0xed, 0xe7, 0x16, 0x33, 0xfc, 0x2b, 0x6c, 0xd9, 0x31, 0x3c, 0xbd, 0xe2, 0x51, 0x0a, 0x2f, 0xec, 0x22, 0xb6, 0x17, 0x14, 0x47, 0x9c, 0xcf, 0xde, 0x08, 0xdd, 0x81, 0x19, 0x3e, 0xd2, 0x0e, 0x4c, 0x4e, 0xd5, 0xe5, 0xdd, 0x1b, 0xda, 0xfb, 0x2d, 0xe9, 0xdc, 0x3b, 0x44, 0xd8, 0x5b, 0x4c, 0x07, 0xa6, 0x26, 0xa9, 0x4d, 0xe1, 0xed, 0x1d, 0x1f, 0xfa, 0xea, 0x11, 0xe9, 0x12, 0xef, 0x11, 0x26, 0xdf, 0x1d, 0x1c, 0x5c, 0xf4, 0x03, 0x34, 0xa7, 0xed, 0x1e, 0xe9, 0xe0, 0xfc, 0xff, 0x23, 0xfc, 0x54, 0xc1, 0xf7, 0x04, 0x22, 0xd5, 0x4c, 0xf8, 0x72, 0x1d, 0x41, 0xff, 0x45, 0xf8, 0x7f, 0xf8, 0xd0, 0xfc, 0x13, 0xdb, 0x4f, 0xa7, 0x17, 0x07, 0x29, 0x21, 0x28, 0xff, 0x09, 0x1a, 0xe7, 0xf0, 0xcd, 0x15, 0x2a, 0x38, 0x29, 0x0d, 0x18, 0xca, 0x55, 0xea, 0x05, 0xfb, 0xc9, 0xff, 0x19, 0xc1, 0x46, 0xe8, 0xee, 0x13, 0xd4, 0x10, 0x21, 0x2d, 0xd9, 0xf9, 0xbf, 0xe1, 0x1e, 0x30, 0xe7, 0x16, 0xfc, 0xf1, 0x6e, 0xbc, 0xdf, 0x62, 0x7f, 0x02, 0x10, 0xc8, 0xe3, 0xf2, 0x0d, 0x17, 0x34, 0x03, 0xfa, 0x29, 0x20, 0x17, 0xfe, 0xdb, 0x1d, 0xdf, 0x1a, 0x03, 0x23, 0xc7, 0x45, 0xfc, 0xbe, 0xdc, 0x13, 0xd6, 0x05, 0xdd, 0x24, 0xdb, 0x46, 0xf5, 0xe4, 0x30, 0xe5, 0x0a, 0xe0, 0xd8, 0x14, 0xdf, 0xd7, 0x03, 0x19, 0xf3, 0x17, 0xec, 0x00, 0xe1, 0xcf, 0x00, 0x20, 0x0a, 0xf1, 0x05, 0x13, 0xc8, 0x2c, 0xe9, 0x14, 0x8b, 0xdd, 0x0b, 0x34, 0xdd, 0xf7, 0xa9, 0xf8, 0xfa, 0xeb, 0x15, 0x1d, 0x2c, 0xd9, 0x1e, 0x23, 0x04, 0xfe, 0xc5, 0x3c, 0xe0, 0xe7, 0x16, 0xee, 0xd5, 0x0f, 0x1f, 0xb9, 0x07, 0x32, 0xdc, 0x0e, 0x05, 0x02, 0xf0, 0x32, 0xd5, 0x1a, 0x48, 0xfc, 0xf5, 0xfc, 0x18, 0xf7, 0x00, 0xe4, 0x35, 0x3f, 0x09, 0x33, 0x03, 0xcb, 0xb3, 0xe0, 0x1f, 0x71, 0xe4, 0xf0, 0xed, 0x05, 0xc1, 0x2d, 0x81, 0xfb, 0xc2, 0xf8, 0x21, 0xa7, 0x0d, 0x0d, 0xdc, 0xbf, 0x43, 0x58, 0x10, 0xa7, 0xd8, 0xe6, 0x1e, 0xe7, 0x9c, 0xd8, 0x28, 0x81, 0xfb, 0xdb, 0xe2, 0x04, 0x2e, 0xbf, 0xf9, 0xf7, 0xfb, 0xe8, 0x0a, 0x08, 0x05, 0x18, 0x13, 0xc8, 0x0b, 0xed, 0x17, 0xe3, 0xd2, 0x34, 0x3b, 0xf4, 0xea, 0x20, 0x0b, 0xf2, 0x00, 0x1c, 0xd0, 0x1b, 0x0d, 0x1f, 0xf7, 0x13, 0x3d, 0x39, 0x12, 0x0f, 0x1d, 0x11, 0x58, 0x39, 0xe3, 0x03, 0xaf, 0xf2, 0x21, 0xe1, 0xbf, 0x12, 0xd8, 0xd0, 0x0b, 0x48, 0xdf, 0xe9, 0xf1, 0xf3, 0xec, 0x1f, 0xd9, 0x3f, 0x36, 0xdd, 0x34, 0x4f, 0x05, 0x1a, 0x4d, 0x35, 0x39, 0x1f, 0x13, 0xee, 0xd9, 0x0e, 0xf1, 0xfe, 0x30, 0xf6, 0xca, 0x5b, 0x0a, 0x25, 0x2e, 0xf1, 0xd6, 0x2c, 0x00, 0x19, 0x10, 0x13, 0xda, 0x39, 0x30, 0xea, 0xe5, 0xaa, 0xa5, 0xe4, 0xfc, 0x1e, 0x81, 0x07, 0xb2, 0xb3, 0xae, 0xe8, 0xe4, 0xb1, 0x11, 0x11, 0xef, 0x06, 0xc1, 0x33, 0x37, 0xf8, 0x12, 0xc9, 0xce, 0xd0, 0x19, 0x17, 0xd0, 0xd7, 0xf9, 0x03, 0x20, 0xc8, 0xca, 0x20, 0xd9, 0xa8, 0xd8, 0x05, 0x13, 0x21, 0x1c, 0xe5, 0xa6, 0x10, 0x10, 0x15, 0xeb, 0x00, 0xb9, 0x16, 0xe2, 0x16, 0x13, 0xe3, 0x18, 0x00, 0xf9, 0xf1, 0xdf, 0x07, 0x04, 0xfe, 0xcc, 0xcb, 0xb4, 0x04, 0x81, 0x3b, 0xb4, 0x22, 0xf7, 0xdf, 0x17, 0x10, 0xc3, 0x81, 0xe0, 0x03, 0xd7, 0x61, 0x13, 0xf6, 0x64, 0x68, 0x0d, 0xf8, 0x16, 0xc9, 0xf4, 0xf5, 0xd6, 0xcb, 0xe8, 0xf4, 0xb6, 0xbc, 0xed, 0x05, 0xe0, 0xc3, 0xe1, 0x24, 0x07, 0xf2, 0x16, 0xfd, 0xaf, 0xfd, 0x11, 0xfb, 0x0c, 0x12, 0xee, 0xfe, 0x30, 0x62, 0x16, 0x14, 0xd8, 0x1c, 0x27, 0x15, 0x20, 0xf2, 0x0d, 0x01, 0x1c, 0xf0, 0xfb, 0xde, 0x21, 0x18, 0xce, 0x0d, 0xb1, 0x03, 0x14, 0xe4, 0xbe, 0x0f, 0xeb, 0xdd, 0xed, 0xc5, 0xff, 0xe1, 0x00, 0x16, 0xdd, 0xf2, 0x1d, 0xe3, 0xee, 0x20, 0x81, 0x07, 0x12, 0x17, 0x29, 0xf2, 0xd3, 0x09, 0xfc, 0x21, 0x04, 0xf0, 0x1e, 0x1e, 0x1f, 0x10, 0xcf, 0x0b, 0x16, 0xe1, 0x06, 0x01, 0x2e, 0xe6, 0x02, 0x18, 0x16, 0xfa, 0x1e, 0x25, 0xe9, 0xe1, 0xdb, 0x0c, 0x3f, 0x00, 0x32, 0xed, 0x0a, 0xb6, 0x01, 0x11, 0xe2, 0x27, 0xc8, 0x22, 0xb3, 0x55, 0x27, 0xb2, 0x33, 0x00, 0x81, 0x07, 0xc3, 0xd3, 0x07, 0x20, 0xdf, 0x14, 0xed, 0xc8, 0x05, 0xfd, 0xf4, 0x22, 0x0f, 0xec, 0x34, 0xad, 0xa8, 0x4b, 0x16, 0xdc, 0x31, 0x32, 0xc5, 0x0f, 0xb6, 0x53, 0x39, 0xc7, 0x0e, 0xd9, 0x08, 0x03, 0xf8, 0xfa, 0x1f, 0xdf, 0x2a, 0xfe, 0xbe, 0x76, 0xe9, 0x22, 0x14, 0x57, 0xcf, 0x0e, 0xf9, 0xbe, 0xad, 0x1a, 0x3c, 0x0a, 0xec, 0x20, 0xfa, 0xea, 0x18, 0x1e, 0x03, 0xb1, 0x02, 0xf9, 0xf1, 0x8d, 0x05, 0x0f, 0xb6, 0xb2, 0xf1, 0xfa, 0x40, 0xf3, 0x0c, 0x05, 0x11, 0xc6, 0xeb, 0x00, 0xc8, 0x25, 0xe5, 0xf9, 0xc8, 0x10, 0x19, 0x2c, 0x26, 0xf4, 0xbc, 0xc8, 0x4f, 0x07, 0xf0, 0xff, 0xb3, 0xc8, 0x20, 0xef, 0xe5, 0x09, 0xfc, 0x0a, 0x0f, 0xd6, 0xfa, 0xdf, 0xc7, 0xef, 0x0d, 0x05, 0xdf, 0x0e, 0xf0, 0x13, 0x7f, 0xdc, 0xf2, 0xf0, 0xea, 0x77, 0xef, 0x01, 0x47, 0x7f, 0xfc, 0x03, 0xf0, 0x0d, 0xfa, 0xef, 0xdc, 0x26, 0x07, 0xfa, 0x1c, 0xe5, 0xff, 0x24, 0xd6, 0xec, 0x0e, 0x12, 0xd3, 0x35, 0x0b, 0x32, 0x40, 0x0d, 0x13, 0xf0, 0x25, 0x35, 0x07, 0x13, 0x2f, 0x22, 0xfd, 0xd6, 0xbf, 0xbf, 0xde, 0xff, 0xfe, 0x04, 0x2f, 0x12, 0xd2, 0x05, 0xe7, 0xda, 0x0c, 0x28, 0xcf, 0x3b, 0xdd, 0xfd, 0xf6, 0xde, 0xd5, 0x12, 0xe5, 0xf6, 0xf0, 0x21, 0x36, 0x3f, 0xdb, 0x5a, 0xf7, 0x11, 0x6a, 0x6e, 0xec, 0xd3, 0xce, 0x56, 0xf8, 0xf3, 0x16, 0x7f, 0xfc, 0x56, 0x2b, 0x60, 0xf5, 0x21, 0x22, 0x36, 0x40, 0x01, 0x0f, 0xe1, 0xf1, 0x0f, 0x6d, 0xff, 0xfa, 0xae, 0xda, 0x15, 0x1e, 0xf8, 0x51, 0x21, 0x28, 0xd7, 0xe5, 0xde, 0xfd, 0x07, 0xbc, 0xbf, 0xd1, 0xc6, 0x0f, 0x2d, 0x14, 0x33, 0xb1, 0xcd, 0xfe, 0x0a, 0xba, 0xe9, 0xf2, 0xf2, 0x45, 0xff, 0x39, 0xe8, 0x35, 0xd9, 0xf1, 0xfa, 0x09, 0x2a, 0x27, 0x13, 0x17, 0x81, 0x07, 0x0c, 0x24, 0xf2, 0xf3, 0xef, 0x69, 0xfa, 0x09, 0x0e, 0x17, 0xee, 0x2a, 0xba, 0xe3, 0x09, 0x06, 0xc3, 0x31, 0x0a, 0xf9, 0xf2, 0xd8, 0xf6, 0x0a, 0x1b, 0xf6, 0x09, 0x0a, 0xcd, 0x0f, 0xb9, 0x07, 0xf7, 0x2b, 0x0a, 0xf1, 0xf1, 0xf4, 0xa7, 0x0c, 0xdd, 0x0f, 0x15, 0x0f, 0x0a, 0x17, 0x0f, 0x57, 0xa0, 0xf8, 0xec, 0x0f, 0xfc, 0x00, 0xc0, 0xeb, 0xee, 0x3e, 0x81, 0x16, 0x0e, 0xe1, 0xc0, 0xfe, 0xf5, 0x0e, 0xfe, 0xf2, 0xef, 0x2d, 0xd0, 0x31, 0x24, 0x9c, 0xf4, 0x06, 0xda, 0x21, 0x2a, 0xe3, 0xe3, 0xf8, 0xed, 0x02, 0xe8, 0xfc, 0x0e, 0x07, 0x2b, 0xea, 0xe0, 0x1d, 0x2a, 0xf4, 0xf8, 0x0e, 0x09, 0x2b, 0x08, 0x23, 0x2b, 0x1a, 0x0f, 0x05, 0x1d, 0xfc, 0xbd, 0xed, 0x28, 0x44, 0x0d, 0xf9, 0xe8, 0xf6, 0x03, 0x13, 0x0a, 0x0c, 0x6d, 0x35, 0xe8, 0x46, 0x49, 0x09, 0x41, 0xec, 0x40, 0xda, 0x16, 0xf3, 0xeb, 0xc4, 0x29, 0xd6, 0x33, 0x0b, 0x23, 0x20, 0xdd, 0x21, 0x54, 0x13, 0x0c, 0x38, 0x28, 0x15, 0x4d, 0xdc, 0x35, 0x36, 0x0c, 0x37, 0x58, 0xf5, 0xc2, 0x9b, 0xd1, 0xc8, 0xe9, 0xde, 0x7f, 0x04, 0xcd, 0xfc, 0x08, 0x08, 0x3c, 0x20, 0xf8, 0xf3, 0xfd, 0xce, 0x28, 0x0c, 0x04, 0xf0, 0xfd, 0xa2, 0xd3, 0x32, 0x23, 0xdc, 0x4c, 0x16, 0xe2, 0x5e, 0xb7, 0x7f, 0xbd, 0xac, 0x21, 0xd0, 0xdb, 0x4d, 0xae, 0x33, 0x54, 0xbd, 0x21, 0x49, 0xe7, 0x06, 0x20, 0x73, 0x13, 0x26, 0xe3, 0x19, 0x01, 0x70, 0xee, 0xfa, 0x06, 0x46, 0x16, 0x1d, 0x32, 0x19, 0x11, 0xbb, 0xbb, 0xa1, 0xf7, 0x12, 0x4a, 0xcb, 0xec, 0x60, 0xbe, 0x8e, 0x35, 0x73, 0x29, 0xc3, 0xd5, 0xad, 0x38, 0x6f, 0x44, 0xc0, 0xe8, 0xfa, 0x24, 0x0b, 0x0e, 0x1b, 0xfb, 0xc5, 0xdd, 0x24, 0x81, 0x1d, 0xcf, 0x02, 0xae, 0xec, 0x12, 0xed, 0xd6, 0x59, 0x01, 0x31, 0xea, 0x4c, 0x10, 0x08, 0x0e, 0x30, 0xa8, 0xf8, 0x14, 0xf8, 0xe4, 0x20, 0xc5, 0x03, 0xb6, 0x6d, 0x32, 0xe1, 0xe3, 0x2e, 0xf4, 0x2b, 0x06, 0x5c, 0xe6, 0xf8, 0x41, 0x1e, 0xa9, 0x97, 0x94, 0x12, 0x9d, 0xfc, 0xe4, 0x92, 0x37, 0x0e, 0xb8, 0xaf, 0x34, 0x02, 0xf0, 0xf6, 0xcb, 0xd6, 0x08, 0xa6, 0x81, 0x0b, 0x25, 0xcc, 0x0f, 0x11, 0xf8, 0x3d, 0x36, 0xf7, 0xfd, 0xd8, 0x0d, 0x08, 0x12, 0xd0, 0xdc, 0x01, 0x25, 0xeb, 0xd5, 0xfb, 0x20, 0xfe, 0xb4, 0xfb, 0x42, 0x19, 0xb9, 0x07, 0x27, 0xb6, 0xdb, 0x25, 0x13, 0xe8, 0x35, 0x1c, 0x07, 0xf4, 0x4b, 0xf5, 0x0c, 0xed, 0xd5, 0x15, 0xe4, 0x10, 0x19, 0x1c, 0xe4, 0x33, 0xfb, 0xe1, 0xfd, 0xff, 0x27, 0xdd, 0xf3, 0xb5, 0xee, 0xce, 0xce, 0xf2, 0xa4, 0xe7, 0xb3, 0xad, 0x31, 0x16, 0x0a, 0x42, 0x2d, 0x2e, 0x0f, 0xf1, 0x05, 0x08, 0x18, 0xdc, 0xee, 0xb3, 0xf3, 0xf8, 0xa0, 0xad, 0x1d, 0xd2, 0xd0, 0xd5, 0x7f, 0xad, 0x28, 0xe3, 0x22, 0xb9, 0x59, 0x01, 0x27, 0x08, 0xe5, 0xe8, 0x03, 0xa2, 0xfb, 0xf8, 0xbd, 0xf0, 0x4f, 0x0e, 0xe5, 0xf6, 0xed, 0x0c, 0xf0, 0xf3, 0xf7, 0xf3, 0x1e, 0x2c, 0xc2, 0x20, 0x19, 0x9f, 0x8e, 0xd2, 0x1f, 0x0f, 0xc6, 0x4d, 0xbb, 0x1f, 0xfe, 0x02, 0xde, 0x3f, 0x1a, 0xf2, 0x25, 0xd3, 0x01, 0x2b, 0xfa, 0xe6, 0x10, 0xd8, 0x1a, 0x12, 0xf6, 0xad, 0xcd, 0x12, 0xab, 0xf1, 0x22, 0x09, 0x0d, 0x31, 0xcd, 0xe4, 0x1f, 0x00, 0x30, 0x35, 0xf2, 0xd9, 0xcc, 0x0d, 0x13, 0xbf, 0xca, 0x33, 0x10, 0x1d, 0xf8, 0xf3, 0xc9, 0x02, 0xa6, 0x2b, 0x05, 0x81, 0x93, 0x01, 0xe2, 0xe9, 0xfb, 0xe2, 0xe5, 0xbd, 0x65, 0xec, 0xb4, 0xfb, 0xeb, 0xb0, 0x08, 0x19, 0xdf, 0xfe, 0x1a, 0x15, 0xba, 0xf0, 0x18, 0xcf, 0xfe, 0x14, 0x42, 0x1e, 0xe4, 0x1b, 0x30, 0xf7, 0xe8, 0x45, 0x0a, 0x0e, 0x00, 0x0d, 0xcd, 0xcd, 0x40, 0x14, 0xa9, 0x16, 0x0c, 0xa9, 0x1a, 0x02, 0xe3, 0xd3, 0x59, 0x31, 0xcf, 0x33, 0xe2, 0xf1, 0x08, 0xb8, 0x32, 0xaa, 0x7f, 0x4f, 0x0e, 0xfc, 0xf1, 0x18, 0xd1, 0xc5, 0x0a, 0xd2, 0x1a, 0x0a, 0xee, 0x0b, 0x49, 0x4b, 0xd4, 0x02, 0xf0, 0x1b, 0x1a, 0x37, 0xe5, 0x02, 0x42, 0x11, 0xdf, 0x1e, 0xda, 0x01, 0x17, 0x1c, 0x12, 0x0a, 0xdd, 0xfc, 0x2b, 0x67, 0xea, 0x08, 0x26, 0x1f, 0x49, 0x20, 0x01, 0x22, 0x12, 0xfd, 0x0e, 0x03, 0x81, 0xf4, 0xd0, 0xfb, 0x34, 0x15, 0xd1, 0x22, 0x59, 0xf7, 0xd4, 0x5e, 0x2a, 0xa9, 0x41, 0x27, 0x73, 0xde, 0xca, 0xe9, 0x51, 0xf1, 0x5f, 0xd3, 0xfd, 0xae, 0x09, 0xe9, 0xc7, 0xe1, 0xd6, 0xcb, 0x28, 0x1b, 0xff, 0x08, 0x36, 0x25, 0xe1, 0xe9, 0x1d, 0x32, 0xf5, 0xe4, 0x19, 0xed, 0x1c, 0x0d, 0xe7, 0xfd, 0x52, 0x3b, 0x01, 0xe7, 0xd0, 0xae, 0xcb, 0x81, 0x44, 0xf2, 0xbe, 0x1d, 0x3a, 0xb2, 0xe3, 0xb8, 0x36, 0xe9, 0x12, 0xe8, 0x17, 0xcc, 0x4b, 0x4d, 0x13, 0x0a, 0xf5, 0x01, 0x23, 0x2e, 0xca, 0x98, 0xdc, 0x60, 0x18, 0xf2, 0x27, 0x94, 0xdf, 0x33, 0xea, 0x81, 0x49, 0x26, 0x3e, 0xee, 0x34, 0x61, 0xd7, 0xd1, 0x35, 0x22, 0x4a, 0x4f, 0x08, 0x30, 0x12, 0xd6, 0x10, 0x0d, 0x44, 0x24, 0xf2, 0x3d, 0x33, 0x2f, 0x00, 0xdf, 0x1d, 0x16, 0x7b, 0x2d, 0x08, 0x06, 0xdc, 0xe1, 0x38, 0x29, 0xe3, 0xd1, 0xc0, 0xdd, 0x10, 0xf8, 0xf6, 0xcf, 0x08, 0xfb, 0xef, 0x50, 0x19, 0x54, 0x17, 0x06, 0xa5, 0xed, 0xfc, 0x19, 0xce, 0x01, 0x2f, 0xf3, 0xe6, 0xf3, 0xff, 0xff, 0x04, 0x00, 0x00, 0x00, 0x00, 0x01, 0x00, 0x00, 0x30, 0xeb, 0xff, 0xff, 0x85, 0xd5, 0xff, 0xff, 0x62, 0xc0, 0xff, 0xff, 0x73, 0xb9, 0xff, 0xff, 0xe1, 0xfc, 0xff, 0xff, 0x6f, 0xec, 0xff, 0xff, 0xed, 0xdd, 0xff, 0xff, 0xfb, 0xe7, 0xff, 0xff, 0xdf, 0xed, 0xff, 0xff, 0xd6, 0xd1, 0xff, 0xff, 0x26, 0xf7, 0xff, 0xff, 0xb5, 0xf4, 0xff, 0xff, 0xed, 0xef, 0xff, 0xff, 0xba, 0xe1, 0xff, 0xff, 0xa2, 0xd5, 0xff, 0xff, 0xed, 0xee, 0xff, 0xff, 0x77, 0xe7, 0xff, 0xff, 0x62, 0xdb, 0xff, 0xff, 0xcb, 0xc1, 0xff, 0xff, 0x87, 0xe0, 0xff, 0xff, 0x3e, 0x0a, 0x00, 0x00, 0x76, 0xf1, 0xff, 0xff, 0xff, 0xf3, 0xff, 0xff, 0x35, 0xed, 0xff, 0xff, 0x23, 0xf6, 0xff, 0xff, 0x94, 0xed, 0xff, 0xff, 0x7d, 0xe4, 0xff, 0xff, 0x79, 0xec, 0xff, 0xff, 0x5e, 0xeb, 0xff, 0xff, 0x7b, 0xe9, 0xff, 0xff, 0x40, 0xf0, 0xff, 0xff, 0x0f, 0xfb, 0xff, 0xff, 0x18, 0x01, 0x00, 0x00, 0x74, 0xe9, 0xff, 0xff, 0x3a, 0xef, 0xff, 0xff, 0xc1, 0x00, 0x00, 0x00, 0x6c, 0xdf, 0xff, 0xff, 0x14, 0xdd, 0xff, 0xff, 0x4a, 0xea, 0xff, 0xff, 0x9d, 0xf1, 0xff, 0xff, 0x38, 0xc7, 0xff, 0xff, 0x71, 0xf6, 0xff, 0xff, 0xcd, 0x01, 0x00, 0x00, 0xa0, 0xf1, 0xff, 0xff, 0x41, 0xf3, 0xff, 0xff, 0x4a, 0x01, 0x00, 0x00, 0x96, 0xf9, 0xff, 0xff, 0xaa, 0xfc, 0xff, 0xff, 0x80, 0xe0, 0xff, 0xff, 0x05, 0xf2, 0xff, 0xff, 0xd0, 0xf6, 0xff, 0xff, 0x54, 0xfa, 0xff, 0xff, 0x3d, 0xf6, 0xff, 0xff, 0x6c, 0xf0, 0xff, 0xff, 0x65, 0xcc, 0xff, 0xff, 0x87, 0xbc, 0xff, 0xff, 0xc9, 0xf0, 0xff, 0xff, 0xa7, 0xf0, 0xff, 0xff, 0x90, 0xe4, 0xff, 0xff, 0x20, 0xf1, 0xff, 0xff, 0x5a, 0xe9, 0xff, 0xff, 0x27, 0xd7, 0xff, 0xff, 0x71, 0xd4, 0xff, 0xff, 0xc3, 0xc7, 0xff, 0xff, 0xf2, 0xf4, 0xff, 0xff, 0x04, 0x00, 0x00, 0x00, 0x00, 0x08, 0x00, 0x00, 0xfc, 0x26, 0x00, 0xfa, 0x0f, 0x08, 0xe5, 0xb6, 0x4c, 0xfa, 0x04, 0x89, 0xce, 0x0f, 0x7f, 0x17, 0x3c, 0x07, 0x0e, 0xf5, 0x34, 0x60, 0x79, 0xd2, 0x45, 0xc3, 0x29, 0xf1, 0x25, 0xf8, 0x03, 0xef, 0xf1, 0xe5, 0x64, 0xd9, 0xe5, 0xad, 0xfc, 0xbf, 0x0e, 0xd9, 0xe3, 0x12, 0xb3, 0xf2, 0xfb, 0xf2, 0xde, 0x23, 0x07, 0x21, 0x4e, 0x3a, 0xfd, 0x00, 0x38, 0x03, 0xfc, 0xf0, 0x92, 0x9c, 0xa5, 0xff, 0xe7, 0x04, 0x49, 0x27, 0x29, 0xf2, 0xcc, 0x47, 0xe1, 0xc4, 0xaa, 0xf8, 0x56, 0x12, 0x7f, 0x3e, 0xd6, 0x13, 0x1a, 0x0e, 0x87, 0xcf, 0x95, 0xbe, 0x6a, 0xf7, 0xfb, 0xc0, 0x09, 0xf6, 0x1a, 0x06, 0xf0, 0xe0, 0x88, 0xec, 0xf1, 0x2d, 0x05, 0xfd, 0x23, 0x18, 0xa5, 0xe3, 0xe0, 0x30, 0x68, 0x09, 0xee, 0xf6, 0x03, 0x26, 0xc0, 0x47, 0x10, 0x33, 0xe8, 0x67, 0x13, 0x4c, 0x47, 0xce, 0x1a, 0x02, 0xe8, 0xfc, 0xee, 0xf1, 0x0d, 0x0f, 0x25, 0xd6, 0x01, 0xca, 0x01, 0xf9, 0xcc, 0xea, 0x7f, 0xfd, 0x0e, 0xfd, 0x07, 0x01, 0x15, 0x1c, 0x10, 0xfe, 0x54, 0x18, 0x06, 0xe8, 0xf9, 0x16, 0x5d, 0xf4, 0x07, 0x0a, 0x3b, 0x1b, 0xf8, 0x07, 0xf9, 0xdc, 0xf5, 0xd4, 0xf4, 0x0a, 0x0b, 0xee, 0xfe, 0xeb, 0x13, 0x5a, 0x14, 0x19, 0xdf, 0x31, 0x01, 0x08, 0x23, 0x01, 0x0d, 0x2c, 0x04, 0xfd, 0xc2, 0xfa, 0x53, 0xbe, 0xf6, 0xfe, 0xd3, 0xe7, 0x12, 0x14, 0x12, 0xfc, 0x3a, 0xab, 0xd7, 0xf2, 0x09, 0xec, 0x14, 0xfc, 0x01, 0xe4, 0xa9, 0x30, 0xeb, 0xca, 0x35, 0x33, 0xd3, 0x20, 0xe6, 0x15, 0xec, 0x11, 0x0c, 0xf5, 0xd5, 0x27, 0xe2, 0xfb, 0xe5, 0x17, 0xda, 0x16, 0xd4, 0x5d, 0x07, 0xf8, 0x0a, 0x2f, 0x36, 0x7f, 0xeb, 0xf1, 0x19, 0x1c, 0xf2, 0x1a, 0xc4, 0x02, 0x07, 0x98, 0xf5, 0xc1, 0xd8, 0xe4, 0xf1, 0xec, 0x3f, 0x44, 0x3d, 0xad, 0x4f, 0x30, 0xd7, 0x40, 0xe3, 0xbb, 0xb3, 0x09, 0x5d, 0x2e, 0x78, 0x22, 0x29, 0x1c, 0x9d, 0x1a, 0x81, 0x25, 0x09, 0xfc, 0x2a, 0x24, 0xc2, 0xe4, 0x0c, 0xe0, 0x27, 0xf2, 0xb8, 0xb3, 0x00, 0x4b, 0x32, 0x4b, 0x1c, 0xbb, 0xd5, 0x0e, 0xf0, 0xf9, 0xfc, 0x36, 0xf7, 0x1e, 0x48, 0x32, 0xc5, 0xfa, 0x0e, 0x37, 0xfa, 0xd1, 0x8a, 0xbd, 0x4a, 0x17, 0xac, 0x04, 0xed, 0xc1, 0x51, 0x47, 0x43, 0xd7, 0x02, 0xfe, 0xc4, 0x7f, 0xf7, 0xba, 0xaa, 0x1b, 0x29, 0x1f, 0xd4, 0x16, 0x2d, 0x0c, 0x86, 0xf8, 0xa6, 0x4f, 0x47, 0x98, 0x03, 0x9c, 0xc6, 0x03, 0x3d, 0x17, 0x19, 0x0f, 0xb3, 0xdc, 0xf4, 0x16, 0x2f, 0xf8, 0x2b, 0xe2, 0xc2, 0xc0, 0x38, 0x37, 0x54, 0x2c, 0xf2, 0x07, 0x3f, 0x2b, 0x9f, 0xec, 0xee, 0x2a, 0xe4, 0xfb, 0x0d, 0xb9, 0x12, 0x0c, 0x9f, 0x06, 0x27, 0x3b, 0x0c, 0xf8, 0x1a, 0xf1, 0x39, 0xc9, 0x41, 0xfc, 0x11, 0x81, 0xf3, 0xfa, 0x06, 0x0d, 0xfe, 0xeb, 0xf8, 0x1d, 0xfa, 0x12, 0x30, 0xaa, 0x2a, 0xd8, 0xe5, 0x0e, 0xf4, 0xd9, 0x1e, 0xef, 0xf5, 0x13, 0x41, 0xce, 0xfc, 0xb7, 0xe2, 0xd6, 0xfd, 0xcf, 0xee, 0x4b, 0x10, 0x16, 0xe4, 0xea, 0xfb, 0x49, 0xf1, 0x11, 0x3d, 0x0e, 0x0a, 0xec, 0x29, 0xe0, 0x01, 0x97, 0xb1, 0xea, 0xdc, 0x0f, 0x0a, 0xad, 0x03, 0xf6, 0x19, 0x17, 0xda, 0xc5, 0x11, 0xee, 0x13, 0xf5, 0xe7, 0xff, 0x1e, 0xf4, 0xf8, 0x0b, 0x0d, 0xf4, 0x16, 0xe9, 0x17, 0x02, 0x28, 0x07, 0xff, 0xe8, 0x00, 0xd2, 0xf0, 0xf6, 0x18, 0xe4, 0x28, 0x10, 0xff, 0x06, 0x11, 0x04, 0xf3, 0xfd, 0x02, 0x29, 0xcc, 0xee, 0x02, 0x01, 0xdb, 0xcb, 0xe1, 0x00, 0x7f, 0x1b, 0xfb, 0xfc, 0xd7, 0x09, 0xf1, 0xfe, 0xe9, 0xe5, 0x05, 0xee, 0x1c, 0x13, 0x14, 0xfa, 0x0d, 0xfc, 0xf7, 0xfc, 0x71, 0xcf, 0x30, 0xdc, 0x96, 0xf8, 0x40, 0xff, 0x5d, 0xf8, 0xfb, 0x11, 0xe5, 0x5f, 0x67, 0xe9, 0x02, 0xf6, 0xff, 0x22, 0x1e, 0xee, 0x7f, 0xf3, 0x0d, 0x02, 0x3d, 0xf4, 0xdd, 0xdf, 0xf9, 0xd0, 0x13, 0xf1, 0xc7, 0x26, 0xf1, 0xf8, 0xf3, 0xe2, 0x11, 0x4b, 0x03, 0xfe, 0x1f, 0x34, 0xf1, 0xf3, 0xfa, 0xce, 0xb9, 0x20, 0xc7, 0xac, 0xf3, 0x13, 0xfc, 0xfa, 0x18, 0x01, 0xfe, 0x15, 0x41, 0xfc, 0xe2, 0x6c, 0xf9, 0xe2, 0x11, 0xf9, 0x26, 0x2b, 0x81, 0x08, 0xf5, 0xff, 0xf6, 0xec, 0x01, 0xeb, 0x14, 0xf0, 0xf4, 0xb6, 0x10, 0x11, 0x0e, 0x15, 0xe9, 0x19, 0x19, 0x2c, 0x0c, 0x10, 0x15, 0xf0, 0x0b, 0x07, 0x07, 0xea, 0xe7, 0x06, 0x26, 0xf5, 0x24, 0xdf, 0x05, 0xef, 0xc1, 0xff, 0x0d, 0x01, 0xb0, 0x32, 0x15, 0x1b, 0x2d, 0xd7, 0x29, 0xf3, 0x1f, 0x03, 0x06, 0xe0, 0xc2, 0x03, 0xe6, 0xfa, 0xc0, 0x2c, 0xe8, 0x4f, 0x26, 0x0b, 0x8b, 0xfa, 0x9e, 0xf2, 0xd0, 0xe2, 0x18, 0xe4, 0x0a, 0x4b, 0x09, 0xd3, 0x05, 0x81, 0xd3, 0x12, 0xb7, 0x07, 0xf6, 0xec, 0xd8, 0x31, 0xe3, 0x24, 0xff, 0xe5, 0xf5, 0x4d, 0x18, 0xed, 0xec, 0x07, 0xf4, 0xdd, 0xfa, 0x97, 0x15, 0xf4, 0xb9, 0xa6, 0x0d, 0xf5, 0xf8, 0xfb, 0x0d, 0x41, 0xfb, 0x2f, 0x30, 0x09, 0xf2, 0x04, 0x0f, 0x0f, 0xe0, 0xfb, 0x0d, 0xcb, 0xf0, 0x44, 0xd5, 0x0d, 0xde, 0xfa, 0xe9, 0x09, 0x06, 0x08, 0x0e, 0xfc, 0x04, 0x09, 0xc6, 0x3e, 0xf3, 0xd7, 0x17, 0xc3, 0xe5, 0xd8, 0xe7, 0x0e, 0xef, 0x11, 0xcc, 0x04, 0x13, 0xf7, 0xf9, 0x08, 0x02, 0x20, 0x09, 0xe7, 0xeb, 0x0e, 0x1b, 0xfb, 0x19, 0x15, 0x28, 0x11, 0x81, 0xe2, 0x04, 0x03, 0xfd, 0x20, 0x03, 0x01, 0x03, 0x0e, 0x0f, 0x04, 0x34, 0xeb, 0xf4, 0x09, 0xef, 0xd3, 0x4b, 0x07, 0xfd, 0x37, 0x07, 0x8e, 0xde, 0xed, 0x11, 0xf9, 0x0f, 0xf8, 0xdf, 0x07, 0x81, 0x1f, 0x06, 0x85, 0x1d, 0x48, 0xc5, 0xf9, 0xe5, 0xc7, 0x30, 0xf9, 0x10, 0x13, 0xe5, 0x09, 0xfc, 0x12, 0xc5, 0x00, 0x1b, 0xb8, 0x8c, 0x19, 0x29, 0xff, 0x01, 0xef, 0x39, 0x32, 0xf0, 0xee, 0x59, 0x0f, 0xf6, 0xf7, 0x10, 0xe0, 0xec, 0xb7, 0xc8, 0xb7, 0xd2, 0x0d, 0x15, 0x45, 0xec, 0xf6, 0x04, 0x13, 0x2e, 0xcf, 0xc6, 0x6d, 0xfb, 0xe4, 0xf8, 0xd5, 0xde, 0x27, 0x81, 0xef, 0xeb, 0xfd, 0x26, 0xd3, 0x62, 0x38, 0x0f, 0xfa, 0xf8, 0xcf, 0xf0, 0xe5, 0xcc, 0xf9, 0xc3, 0xfc, 0xf3, 0xfc, 0x13, 0x07, 0xfe, 0xde, 0xe4, 0x2b, 0x2d, 0x0a, 0x07, 0x19, 0x1d, 0x13, 0xfc, 0xbb, 0x13, 0xd9, 0xbb, 0xcf, 0xf1, 0xfd, 0xbc, 0x02, 0x11, 0x4c, 0x26, 0x29, 0x17, 0xea, 0x4e, 0xd6, 0x16, 0xe6, 0xf3, 0xc7, 0x16, 0xdb, 0x61, 0x0f, 0x6c, 0xc6, 0x0e, 0xfc, 0x30, 0xf0, 0xf0, 0x07, 0xe1, 0xe4, 0xbf, 0x10, 0xa8, 0xf4, 0x56, 0x77, 0xc8, 0x1e, 0xcb, 0xfb, 0x43, 0xd5, 0x22, 0x10, 0xd5, 0x18, 0xf7, 0x02, 0xe8, 0x03, 0xe2, 0x07, 0x18, 0x43, 0xea, 0xce, 0xfe, 0x29, 0x06, 0x7a, 0x20, 0xd9, 0x52, 0x1c, 0xe1, 0x0c, 0x81, 0x18, 0xd0, 0xf4, 0x53, 0xf9, 0xcb, 0xe4, 0xf5, 0xf2, 0x07, 0xec, 0x0e, 0xe0, 0x02, 0xc7, 0x5c, 0x33, 0x38, 0x81, 0xe0, 0xfd, 0x0f, 0x07, 0xf0, 0xf8, 0x01, 0xf1, 0xd5, 0x14, 0x25, 0xc0, 0x02, 0x0c, 0x08, 0x0f, 0xfa, 0xd8, 0x14, 0x01, 0x02, 0x11, 0x37, 0x0c, 0xbf, 0xea, 0xd1, 0xe9, 0xfc, 0xeb, 0xf2, 0x24, 0xef, 0x07, 0x03, 0xf9, 0x01, 0x1d, 0xf0, 0xea, 0xf0, 0x60, 0x04, 0xdb, 0x03, 0xf3, 0xb5, 0xbc, 0xc1, 0xbd, 0xa0, 0x14, 0x46, 0x81, 0x0b, 0xf7, 0x1c, 0x00, 0xc6, 0xb1, 0xe8, 0xf5, 0xff, 0xf7, 0xe9, 0xf2, 0x57, 0x01, 0x11, 0x02, 0xef, 0xf2, 0xfa, 0x19, 0xd0, 0x2d, 0x24, 0x3f, 0x0c, 0x03, 0x17, 0xe1, 0x68, 0xe3, 0x1e, 0xf7, 0xf9, 0xf4, 0x0e, 0xfa, 0xf9, 0xfd, 0xe7, 0xef, 0xe9, 0x00, 0xec, 0xe7, 0x0b, 0x14, 0xe9, 0x19, 0xc8, 0x06, 0x1c, 0x12, 0xe7, 0xe7, 0xb0, 0xf4, 0x09, 0x16, 0x03, 0xd5, 0xf0, 0xdb, 0xe8, 0xe9, 0x00, 0xef, 0x19, 0x19, 0x14, 0xed, 0x20, 0x1a, 0xe5, 0x81, 0x16, 0x04, 0xfb, 0x03, 0x45, 0x00, 0x04, 0xfe, 0x33, 0xf9, 0x6b, 0xfe, 0x33, 0xb1, 0x18, 0x31, 0xdd, 0x12, 0x5b, 0xef, 0x06, 0x0e, 0x0f, 0x04, 0xbc, 0x9d, 0xf0, 0xb7, 0x11, 0xc7, 0xa8, 0xf7, 0x20, 0x13, 0x10, 0xcc, 0xe2, 0x4c, 0x16, 0x0b, 0x49, 0x30, 0x11, 0xcf, 0x22, 0xd6, 0xc6, 0xea, 0xee, 0x9e, 0xb2, 0x1f, 0x45, 0x81, 0x19, 0xf9, 0x11, 0x26, 0xa9, 0xcb, 0x03, 0xc7, 0x22, 0x65, 0xe2, 0xf0, 0x2a, 0x1a, 0xdf, 0x0e, 0xf5, 0x09, 0x0d, 0xf5, 0x12, 0x1d, 0x45, 0x65, 0x17, 0xda, 0x17, 0xd1, 0x3a, 0xe3, 0x06, 0xda, 0x28, 0x22, 0xc8, 0x36, 0xe8, 0x02, 0x12, 0x18, 0xf2, 0xfd, 0x11, 0xd8, 0x1c, 0x03, 0xed, 0x43, 0xc8, 0x09, 0x0b, 0x2e, 0xfe, 0x1e, 0x96, 0xd7, 0xd9, 0x3a, 0x00, 0xcd, 0xcf, 0xdf, 0x0d, 0xb6, 0xfc, 0x0d, 0x1d, 0x0e, 0xd6, 0xd2, 0x05, 0xca, 0x26, 0x0b, 0xbb, 0xeb, 0x29, 0xf3, 0x1e, 0xf9, 0xe5, 0xf6, 0x09, 0x27, 0x1c, 0x07, 0x1c, 0x18, 0x16, 0x13, 0xfd, 0xf4, 0x1a, 0xff, 0x12, 0xf6, 0x21, 0x16, 0xf0, 0xe1, 0x04, 0xe4, 0xe5, 0xee, 0xd3, 0x11, 0xe5, 0xef, 0xf1, 0x02, 0xd5, 0xcc, 0xd6, 0x0f, 0x7f, 0x34, 0x01, 0xf8, 0xfb, 0xf8, 0xf6, 0x07, 0xf1, 0xe6, 0xf1, 0xe1, 0x30, 0xfe, 0x16, 0x12, 0xef, 0xcf, 0x0d, 0x22, 0x31, 0xd9, 0x0a, 0xaf, 0xf7, 0x01, 0x2c, 0xf9, 0x07, 0xfd, 0x07, 0x03, 0x92, 0x22, 0x44, 0xa8, 0x27, 0x23, 0xdd, 0xf6, 0xea, 0x10, 0xf7, 0x0e, 0xf4, 0x1c, 0x2d, 0x15, 0x31, 0xff, 0xe2, 0xd9, 0xfe, 0xe6, 0xcd, 0x1d, 0xfd, 0x13, 0xf3, 0x06, 0x0a, 0x7f, 0x1a, 0xef, 0xcf, 0xdf, 0x04, 0xea, 0x31, 0x04, 0x1c, 0xb4, 0x24, 0x8a, 0x35, 0xf3, 0x01, 0x12, 0x07, 0x08, 0x02, 0x0a, 0x19, 0x1c, 0xe7, 0x7f, 0xec, 0x16, 0x06, 0x06, 0xfd, 0x17, 0xc4, 0x06, 0x0b, 0xfe, 0xff, 0x08, 0xf1, 0xe5, 0x11, 0xed, 0x09, 0xd2, 0x0b, 0xf5, 0xf7, 0x01, 0xff, 0x02, 0x25, 0x1d, 0x14, 0xf4, 0x26, 0x16, 0x0c, 0xdf, 0xfe, 0xfe, 0x1f, 0xf4, 0x17, 0x07, 0x0d, 0xf2, 0xee, 0xf9, 0x16, 0xfc, 0xff, 0x0d, 0xef, 0x1f, 0x0f, 0xfe, 0x1d, 0xe5, 0x06, 0x01, 0x5b, 0xf7, 0x02, 0x0f, 0xf4, 0x16, 0x0d, 0xfa, 0x24, 0xa3, 0x1e, 0x54, 0xdb, 0xf2, 0x46, 0xf7, 0x14, 0x12, 0xfa, 0xea, 0xf7, 0x41, 0x29, 0x42, 0x7f, 0x48, 0xf8, 0xda, 0x15, 0x05, 0x78, 0xf0, 0x0c, 0x06, 0xec, 0x18, 0xea, 0x13, 0x02, 0x23, 0xe8, 0x1e, 0x2c, 0xfe, 0xcb, 0xef, 0x19, 0x0a, 0xc9, 0x2d, 0xc8, 0x11, 0x26, 0x2e, 0x04, 0xfd, 0xb6, 0xf1, 0xe9, 0x31, 0x24, 0xe0, 0xe5, 0xfe, 0x2b, 0x81, 0xec, 0xef, 0x26, 0x06, 0xe2, 0xcc, 0x2f, 0x1c, 0xf9, 0x12, 0xf9, 0xf6, 0x3a, 0xf8, 0xfe, 0xf7, 0x0a, 0xff, 0x19, 0x18, 0x04, 0xe3, 0x45, 0x3b, 0x12, 0xf1, 0x07, 0xea, 0x1d, 0xfc, 0x1c, 0xee, 0x1f, 0x07, 0xe9, 0xf8, 0xfc, 0xfe, 0xea, 0x07, 0xef, 0xfb, 0xf8, 0xe2, 0xff, 0xef, 0xc4, 0xf9, 0x09, 0x0c, 0x3c, 0x28, 0xe7, 0x01, 0xed, 0xed, 0xf0, 0x26, 0xde, 0xe2, 0xd5, 0xf8, 0xfc, 0xf5, 0x0a, 0x01, 0xe3, 0x16, 0x18, 0xff, 0xe9, 0x46, 0xf9, 0x13, 0x24, 0xf5, 0x2f, 0x0e, 0x81, 0x07, 0x01, 0x01, 0x08, 0xee, 0xe0, 0x12, 0xfa, 0xec, 0xe7, 0x9e, 0xfe, 0x09, 0xfc, 0xf7, 0xdb, 0x14, 0xeb, 0x3f, 0x2a, 0x0c, 0x21, 0xec, 0x22, 0x10, 0xfa, 0xef, 0x09, 0x0b, 0x26, 0x15, 0x18, 0xa5, 0x10, 0x02, 0x1d, 0xcb, 0xf3, 0xf8, 0xde, 0x20, 0x14, 0xf8, 0x09, 0xbc, 0x37, 0x0f, 0xd9, 0xed, 0x23, 0x26, 0xae, 0x11, 0xed, 0xc3, 0xaf, 0x34, 0xee, 0x47, 0xe8, 0x05, 0xc1, 0x1b, 0xa4, 0x0d, 0x20, 0x03, 0xce, 0xc2, 0xef, 0x7f, 0xfc, 0xa6, 0xfa, 0xcc, 0xd3, 0xf8, 0xc6, 0xea, 0xf7, 0x04, 0x02, 0x06, 0x2d, 0x21, 0xff, 0x1b, 0x10, 0x3a, 0xfe, 0x05, 0x3c, 0x14, 0x18, 0xf4, 0x1d, 0xd8, 0x4a, 0x0c, 0xa5, 0x06, 0x0a, 0x1b, 0xf8, 0x0f, 0x0b, 0xb2, 0xdf, 0xfb, 0xe7, 0x0a, 0xf3, 0x7f, 0x16, 0xed, 0x05, 0xed, 0x70, 0xe4, 0x09, 0x50, 0xf3, 0xf6, 0xb4, 0xd4, 0xd5, 0x2c, 0x09, 0x06, 0x00, 0x11, 0x1e, 0xf3, 0x3d, 0x26, 0x3f, 0xee, 0xd9, 0xf3, 0xf3, 0x14, 0xe1, 0xea, 0xc8, 0x07, 0x4c, 0x1d, 0xfa, 0x11, 0x09, 0x00, 0xff, 0x12, 0x00, 0x1a, 0x0e, 0x41, 0x0c, 0x05, 0x50, 0xf9, 0x1a, 0xe9, 0xd8, 0xdb, 0xf0, 0xf2, 0xd0, 0x3b, 0x0a, 0x0d, 0x21, 0xb7, 0xee, 0x0c, 0x01, 0x04, 0x23, 0x29, 0x1d, 0xe4, 0x37, 0x38, 0xc0, 0x7f, 0xd1, 0xe9, 0xcd, 0xfb, 0xd5, 0x37, 0x98, 0x12, 0x1d, 0x02, 0xa3, 0x06, 0xc9, 0xde, 0x68, 0xde, 0x0a, 0xdc, 0xdd, 0xec, 0xe0, 0xf5, 0xfe, 0x12, 0xe2, 0x1a, 0xf4, 0x14, 0x2e, 0x04, 0x19, 0xcb, 0xc2, 0xee, 0x25, 0x33, 0x35, 0xf8, 0x18, 0x4a, 0x16, 0x13, 0x0d, 0xfd, 0xf9, 0x25, 0xdd, 0x60, 0x25, 0x2a, 0xfa, 0xf3, 0xf9, 0x0e, 0xfc, 0x2c, 0x0b, 0x00, 0xe9, 0xe9, 0x11, 0x1a, 0x7f, 0xea, 0x46, 0xec, 0xf8, 0x03, 0x24, 0xf2, 0x02, 0x06, 0xfc, 0x00, 0x17, 0xf1, 0x09, 0xee, 0x36, 0x05, 0xeb, 0x25, 0xfd, 0x1a, 0x31, 0x00, 0x08, 0x0a, 0xef, 0x0e, 0xe8, 0xfe, 0xff, 0x04, 0x0b, 0x15, 0x1d, 0x33, 0xf5, 0xe3, 0xf5, 0x00, 0x29, 0x6e, 0xf9, 0xf4, 0x1b, 0x28, 0x05, 0x11, 0xe7, 0x09, 0xf4, 0x0a, 0x0d, 0x0a, 0xea, 0x09, 0x25, 0x81, 0xf6, 0x0f, 0x15, 0x08, 0x1e, 0xd6, 0x0b, 0x05, 0x11, 0x9a, 0x20, 0x06, 0xea, 0x15, 0x25, 0xf3, 0xf9, 0xfa, 0xe8, 0xe6, 0x17, 0xcf, 0xff, 0x18, 0xe2, 0xc3, 0x0e, 0xc0, 0xff, 0x0d, 0x19, 0xf0, 0x36, 0xfd, 0xe4, 0xeb, 0xef, 0x15, 0xed, 0xee, 0xb0, 0x36, 0x00, 0x05, 0xfe, 0xf5, 0x09, 0xed, 0x0a, 0xfa, 0xf0, 0x9e, 0xe8, 0xfd, 0x04, 0xfd, 0xfd, 0xa2, 0xef, 0xdb, 0xde, 0xe1, 0xdb, 0x25, 0x2c, 0x2b, 0xfc, 0xce, 0xcb, 0xc1, 0xe1, 0xc5, 0xce, 0xce, 0xe5, 0x01, 0xc1, 0x07, 0x09, 0x00, 0x18, 0xf8, 0xdc, 0x0e, 0x20, 0x7f, 0xdf, 0xc8, 0x27, 0xd0, 0xf8, 0xdd, 0xec, 0x10, 0xe8, 0xff, 0xd7, 0xb4, 0x01, 0x3e, 0xd0, 0x02, 0x37, 0x17, 0x02, 0xd5, 0xe5, 0xf0, 0x26, 0x0d, 0xdf, 0x2d, 0x18, 0x00, 0x24, 0x17, 0x07, 0x32, 0xe5, 0x0f, 0x0d, 0x0e, 0xe0, 0x47, 0xf9, 0x20, 0xe4, 0xcd, 0x37, 0x08, 0x0e, 0x16, 0x55, 0x2e, 0xe3, 0x67, 0xc2, 0xf1, 0x2b, 0xfd, 0xda, 0x27, 0x82, 0x10, 0x12, 0x01, 0xd4, 0xf6, 0xbc, 0x4a, 0x29, 0xcc, 0x1f, 0x98, 0xe2, 0x1d, 0xcb, 0x19, 0x0a, 0x0c, 0xf2, 0x23, 0xe8, 0x04, 0x16, 0xd8, 0x3f, 0x1e, 0x03, 0xd6, 0xf5, 0xe9, 0x15, 0x06, 0x52, 0xd3, 0x37, 0xf8, 0x81, 0xd4, 0xf9, 0x17, 0xdd, 0x42, 0x3b, 0x42, 0xf3, 0xeb, 0xf3, 0xff, 0xfe, 0xfc, 0xff, 0xff, 0x04, 0x00, 0x00, 0x00, 0x80, 0x00, 0x00, 0x00, 0x81, 0xde, 0xff, 0xff, 0xf0, 0xb9, 0xff, 0xff, 0xf7, 0xb5, 0xff, 0xff, 0x3a, 0x53, 0x00, 0x00, 0xad, 0x88, 0xff, 0xff, 0x14, 0xaf, 0xff, 0xff, 0x80, 0x33, 0x00, 0x00, 0xf1, 0x22, 0x00, 0x00, 0x4a, 0xde, 0xff, 0xff, 0x8c, 0xd9, 0xff, 0xff, 0xb3, 0x5f, 0x00, 0x00, 0xc8, 0x09, 0x00, 0x00, 0x93, 0x9f, 0x00, 0x00, 0xe6, 0x19, 0x00, 0x00, 0xee, 0x1f, 0x00, 0x00, 0x30, 0x82, 0x00, 0x00, 0x5d, 0x43, 0x00, 0x00, 0xbe, 0x1c, 0x00, 0x00, 0x8e, 0xe5, 0xff, 0xff, 0x07, 0x27, 0x00, 0x00, 0x16, 0x06, 0x00, 0x00, 0x10, 0xc1, 0xff, 0xff, 0xdd, 0x82, 0xff, 0xff, 0x6c, 0x19, 0x00, 0x00, 0x45, 0xf0, 0xff, 0xff, 0xd3, 0x09, 0x00, 0x00, 0xc4, 0xab, 0xff, 0xff, 0x4f, 0x94, 0xff, 0xff, 0xde, 0x99, 0xff, 0xff, 0x50, 0x7c, 0x00, 0x00, 0xb1, 0xf7, 0xff, 0xff, 0x3a, 0xc3, 0xff, 0xff, 0x8a, 0xfd, 0xff, 0xff, 0x04, 0x00, 0x00, 0x00, 0x00, 0x02, 0x00, 0x00, 0xec, 0x3f, 0x4a, 0x4c, 0xce, 0xae, 0x5d, 0x5a, 0x13, 0x20, 0xfa, 0xe0, 0xff, 0xd9, 0x7f, 0x55, 0xeb, 0x57, 0x16, 0xf0, 0x29, 0x1c, 0x52, 0x04, 0x03, 0x38, 0x21, 0xb9, 0x0b, 0x3c, 0x34, 0x75, 0xb1, 0x1c, 0xf5, 0x4d, 0xd4, 0xd3, 0x3a, 0x7c, 0x18, 0x95, 0x16, 0x96, 0x91, 0xfa, 0x78, 0xff, 0x7f, 0x2b, 0x7b, 0x1d, 0xd3, 0xee, 0x5e, 0xd6, 0xc6, 0xa4, 0xe0, 0x99, 0xc4, 0x6f, 0x25, 0xab, 0x3a, 0xc8, 0x14, 0xde, 0xa2, 0xc8, 0xf7, 0xf2, 0xfd, 0xf5, 0x23, 0xc2, 0x66, 0x1c, 0x7e, 0x19, 0x5e, 0xdd, 0x4b, 0x17, 0xb4, 0x3b, 0x35, 0x7e, 0x4f, 0x39, 0x81, 0xb7, 0x5f, 0x01, 0xba, 0xe9, 0xc3, 0xec, 0xd5, 0xc2, 0xe9, 0x6f, 0xe5, 0xde, 0xb1, 0xd5, 0x85, 0xe4, 0xc0, 0x2e, 0xb7, 0x1c, 0x2f, 0x33, 0x9c, 0x1d, 0xc1, 0xba, 0x01, 0xd7, 0x7b, 0x81, 0x41, 0x54, 0xb0, 0x20, 0x15, 0x17, 0x27, 0x54, 0xb9, 0xc2, 0x44, 0x49, 0xd9, 0xde, 0xd3, 0xd4, 0x3d, 0xf4, 0xfe, 0x81, 0x99, 0xef, 0x31, 0xe9, 0x25, 0xdf, 0xd3, 0xd3, 0xb9, 0xde, 0x0c, 0x35, 0x2f, 0xf3, 0xe4, 0x06, 0x4a, 0x2d, 0xb9, 0xc5, 0x24, 0x20, 0xb1, 0x9a, 0x4c, 0x10, 0x34, 0xa6, 0xa2, 0xcb, 0x67, 0xb5, 0xca, 0x69, 0x00, 0xfd, 0xcd, 0xe2, 0x70, 0xb4, 0xb7, 0x7f, 0xd4, 0xf7, 0x4a, 0x0b, 0xbc, 0x72, 0xb6, 0xb9, 0xf2, 0xbf, 0xb2, 0x45, 0x6a, 0x1b, 0x21, 0x83, 0x1c, 0xaa, 0x51, 0xde, 0x12, 0x14, 0x12, 0x4b, 0x81, 0x3b, 0xd7, 0x06, 0xcc, 0xe1, 0xf8, 0xf1, 0xc4, 0x72, 0xbb, 0xaf, 0x39, 0xa0, 0xb4, 0xeb, 0xa5, 0x0d, 0xfc, 0xb8, 0xcd, 0xcb, 0xaf, 0xbd, 0x84, 0x3a, 0x4b, 0x0b, 0xda, 0x55, 0xa4, 0xbc, 0xa0, 0x49, 0xb0, 0xde, 0x02, 0x81, 0xa3, 0xdd, 0xe6, 0x78, 0xf1, 0x0d, 0xa2, 0xc3, 0xfc, 0x4e, 0x7f, 0xe0, 0x40, 0x5a, 0xe6, 0x09, 0x33, 0xac, 0x74, 0xd0, 0xc5, 0x43, 0x59, 0xd8, 0xf3, 0x6a, 0x1f, 0x43, 0x34, 0x7c, 0x09, 0x87, 0x07, 0x09, 0x83, 0xc3, 0x67, 0xe4, 0x48, 0x3e, 0xb8, 0xe4, 0xd3, 0x5d, 0x03, 0x08, 0x17, 0x3b, 0xef, 0xe3, 0x99, 0xa7, 0x07, 0x32, 0x2e, 0x25, 0xc2, 0xaa, 0xbf, 0x33, 0x0b, 0x81, 0x09, 0x3f, 0x0f, 0x98, 0x5c, 0x05, 0x4f, 0x0b, 0x9a, 0x18, 0xa8, 0x48, 0xd2, 0x52, 0x56, 0xb2, 0x36, 0x2b, 0xd6, 0xf0, 0xdc, 0x57, 0x07, 0x33, 0x11, 0x56, 0x95, 0xdc, 0xde, 0xc6, 0xf3, 0xad, 0x37, 0x6f, 0xab, 0x1e, 0x59, 0x60, 0x1e, 0x70, 0x81, 0x21, 0x2d, 0x55, 0x7f, 0x2d, 0x1c, 0x49, 0xcb, 0x0c, 0x29, 0x61, 0xdb, 0xc1, 0x11, 0xf0, 0x28, 0x07, 0x7d, 0xaa, 0x43, 0x0c, 0x19, 0xfc, 0xee, 0xac, 0x78, 0x55, 0xce, 0xfb, 0xdb, 0xc3, 0x43, 0x29, 0x0b, 0xea, 0xd9, 0x34, 0x0d, 0xbd, 0xa2, 0x45, 0xfd, 0xf6, 0xd3, 0x37, 0x17, 0x5e, 0xc6, 0x81, 0xd3, 0xfc, 0x34, 0xd8, 0x08, 0xda, 0x24, 0xe8, 0xf4, 0xf4, 0x03, 0xf8, 0x2d, 0xdd, 0xa7, 0x23, 0x4f, 0xe8, 0x06, 0xf0, 0xe6, 0x63, 0xb4, 0x99, 0xc8, 0x7e, 0x66, 0x23, 0x1e, 0xcc, 0xfd, 0xe5, 0x68, 0xd7, 0x5b, 0x01, 0x73, 0xe2, 0xc4, 0x47, 0x40, 0xa5, 0x3f, 0xe4, 0x81, 0xd6, 0xfc, 0x0a, 0xf1, 0xe1, 0xbb, 0x14, 0x34, 0x30, 0xfb, 0x60, 0x18, 0xca, 0x5c, 0x36, 0x39, 0x68, 0x45, 0x5e, 0xe6, 0x6c, 0xab, 0xd9, 0xef, 0x0a, 0x99, 0x7e, 0x20, 0x9b, 0xf6, 0x34, 0x2e, 0x7f, 0xc5, 0xaa, 0x62, 0x4c, 0xec, 0x89, 0xdd, 0xf2, 0x7f, 0x1c, 0x57, 0x04, 0x4a, 0xaa, 0xe2, 0xbe, 0x05, 0xad, 0xfc, 0x45, 0xbb, 0x0d, 0x17, 0xbe, 0xee, 0x9f, 0xc3, 0x0b, 0x0c, 0xab, 0x0f, 0x20, 0x2b, 0xd3, 0xc5, 0xb3, 0x96, 0xff, 0xff, 0xff, 0x04, 0x00, 0x00, 0x00, 0x40, 0x00, 0x00, 0x00, 0x3a, 0x03, 0x00, 0x00, 0x1b, 0x01, 0x00, 0x00, 0xf1, 0x03, 0x00, 0x00, 0xf6, 0x00, 0x00, 0x00, 0x54, 0x09, 0x00, 0x00, 0x6e, 0x0d, 0x00, 0x00, 0x49, 0xf8, 0xff, 0xff, 0xc4, 0x0f, 0x00, 0x00, 0xab, 0x0f, 0x00, 0x00, 0xe4, 0x05, 0x00, 0x00, 0x26, 0x0e, 0x00, 0x00, 0x1b, 0x07, 0x00, 0x00, 0x17, 0x08, 0x00, 0x00, 0x81, 0xfe, 0xff, 0xff, 0x3f, 0x09, 0x00, 0x00, 0x4f, 0xf2, 0xff, 0xff, 0xe2, 0xff, 0xff, 0xff, 0x04, 0x00, 0x00, 0x00, 0x10, 0x00, 0x00, 0x00, 0xae, 0xd3, 0xd4, 0x23, 0x34, 0x81, 0x1c, 0x79, 0x89, 0x30, 0x4b, 0xcd, 0x5a, 0xc9, 0x57, 0x41, 0x00, 0x00, 0x06, 0x00, 0x08, 0x00, 0x04, 0x00, 0x06, 0x00, 0x00, 0x00, 0x04, 0x00, 0x00, 0x00, 0x04, 0x00, 0x00, 0x00, 0xb6, 0xff, 0xff, 0xff, 0x40, 0xea, 0xff, 0xff, 0x44, 0xea, 0xff, 0xff, 0x0f, 0x00, 0x00, 0x00, 0x4d, 0x4c, 0x49, 0x52, 0x20, 0x43, 0x6f, 0x6e, 0x76, 0x65, 0x72, 0x74, 0x65, 0x64, 0x2e, 0x00, 0x01, 0x00, 0x00, 0x00, 0x14, 0x00, 0x00, 0x00, 0x00, 0x00, 0x0e, 0x00, 0x18, 0x00, 0x14, 0x00, 0x10, 0x00, 0x0c, 0x00, 0x08, 0x00, 0x04, 0x00, 0x0e, 0x00, 0x00, 0x00, 0x14, 0x00, 0x00, 0x00, 0x1c, 0x00, 0x00, 0x00, 0xb0, 0x01, 0x00, 0x00, 0xb4, 0x01, 0x00, 0x00, 0xb8, 0x01, 0x00, 0x00, 0x04, 0x00, 0x00, 0x00, 0x6d, 0x61, 0x69, 0x6e, 0x00, 0x00, 0x00, 0x00, 0x07, 0x00, 0x00, 0x00, 0x78, 0x01, 0x00, 0x00, 0x28, 0x01, 0x00, 0x00, 0xdc, 0x00, 0x00, 0x00, 0x90, 0x00, 0x00, 0x00, 0x58, 0x00, 0x00, 0x00, 0x34, 0x00, 0x00, 0x00, 0x04, 0x00, 0x00, 0x00, 0xde, 0xff, 0xff, 0xff, 0x0c, 0x00, 0x00, 0x00, 0x10, 0x00, 0x00, 0x00, 0x03, 0x00, 0x00, 0x00, 0x01, 0x00, 0x00, 0x00, 0x0f, 0x00, 0x00, 0x00, 0x01, 0x00, 0x00, 0x00, 0x0e, 0x00, 0x00, 0x00, 0x00, 0x00, 0x0a, 0x00, 0x10, 0x00, 0x0c, 0x00, 0x08, 0x00, 0x04, 0x00, 0x0a, 0x00, 0x00, 0x00, 0x0c, 0x00, 0x00, 0x00, 0x10, 0x00, 0x00, 0x00, 0x02, 0x00, 0x00, 0x00, 0x01, 0x00, 0x00, 0x00, 0x0e, 0x00, 0x00, 0x00, 0x01, 0x00, 0x00, 0x00, 0x0d, 0x00, 0x00, 0x00, 0x92, 0xff, 0xff, 0xff, 0x14, 0x00, 0x00, 0x00, 0x00, 0x00, 0x00, 0x08, 0x10, 0x00, 0x00, 0x00, 0x14, 0x00, 0x00, 0x00, 0x01, 0x00, 0x00, 0x00, 0x1c, 0xeb, 0xff, 0xff, 0x01, 0x00, 0x00, 0x00, 0x0d, 0x00, 0x00, 0x00, 0x03, 0x00, 0x00, 0x00, 0x0c, 0x00, 0x00, 0x00, 0x02, 0x00, 0x00, 0x00, 0x01, 0x00, 0x00, 0x00, 0xc6, 0xff, 0xff, 0xff, 0x14, 0x00, 0x00, 0x00, 0x00, 0x00, 0x00, 0x08, 0x14, 0x00, 0x00, 0x00, 0x18, 0x00, 0x00, 0x00, 0x01, 0x00, 0x00, 0x00, 0x6e, 0xff, 0xff, 0xff, 0x00, 0x00, 0x00, 0x01, 0x01, 0x00, 0x00, 0x00, 0x0c, 0x00, 0x00, 0x00, 0x03, 0x00, 0x00, 0x00, 0x0b, 0x00, 0x00, 0x00, 0x04, 0x00, 0x00, 0x00, 0x03, 0x00, 0x00, 0x00, 0x00, 0x00, 0x0e, 0x00, 0x18, 0x00, 0x14, 0x00, 0x10, 0x00, 0x0c, 0x00, 0x0b, 0x00, 0x04, 0x00, 0x0e, 0x00, 0x00, 0x00, 0x14, 0x00, 0x00, 0x00, 0x00, 0x00, 0x00, 0x08, 0x14, 0x00, 0x00, 0x00, 0x18, 0x00, 0x00, 0x00, 0x01, 0x00, 0x00, 0x00, 0xb6, 0xff, 0xff, 0xff, 0x00, 0x00, 0x00, 0x01, 0x01, 0x00, 0x00, 0x00, 0x0b, 0x00, 0x00, 0x00, 0x03, 0x00, 0x00, 0x00, 0x0a, 0x00, 0x00, 0x00, 0x06, 0x00, 0x00, 0x00, 0x05, 0x00, 0x00, 0x00, 0x00, 0x00, 0x0e, 0x00, 0x1a, 0x00, 0x14, 0x00, 0x10, 0x00, 0x0c, 0x00, 0x0b, 0x00, 0x04, 0x00, 0x0e, 0x00, 0x00, 0x00, 0x1c, 0x00, 0x00, 0x00, 0x00, 0x00, 0x00, 0x08, 0x1c, 0x00, 0x00, 0x00, 0x20, 0x00, 0x00, 0x00, 0x01, 0x00, 0x00, 0x00, 0x00, 0x00, 0x06, 0x00, 0x08, 0x00, 0x07, 0x00, 0x06, 0x00, 0x00, 0x00, 0x00, 0x00, 0x00, 0x01, 0x01, 0x00, 0x00, 0x00, 0x0a, 0x00, 0x00, 0x00, 0x03, 0x00, 0x00, 0x00, 0x09, 0x00, 0x00, 0x00, 0x08, 0x00, 0x00, 0x00, 0x07, 0x00, 0x00, 0x00, 0x00, 0x00, 0x0a, 0x00, 0x0c, 0x00, 0x00, 0x00, 0x08, 0x00, 0x04, 0x00, 0x0a, 0x00, 0x00, 0x00, 0x08, 0x00, 0x00, 0x00, 0x0c, 0x00, 0x00, 0x00, 0x01, 0x00, 0x00, 0x00, 0x09, 0x00, 0x00, 0x00, 0x01, 0x00, 0x00, 0x00, 0x00, 0x00, 0x00, 0x00, 0x01, 0x00, 0x00, 0x00, 0x0f, 0x00, 0x00, 0x00, 0x01, 0x00, 0x00, 0x00, 0x00, 0x00, 0x00, 0x00, 0x10, 0x00, 0x00, 0x00, 0x94, 0x13, 0x00, 0x00, 0x08, 0x13, 0x00, 0x00, 0x80, 0x12, 0x00, 0x00, 0x44, 0x11, 0x00, 0x00, 0x20, 0x10, 0x00, 0x00, 0x04, 0x0e, 0x00, 0x00, 0x80, 0x0b, 0x00, 0x00, 0x04, 0x08, 0x00, 0x00, 0xa0, 0x04, 0x00, 0x00, 0x2c, 0x04, 0x00, 0x00, 0x60, 0x03, 0x00, 0x00, 0x3c, 0x02, 0x00, 0x00, 0x80, 0x01, 0x00, 0x00, 0xe4, 0x00, 0x00, 0x00, 0x60, 0x00, 0x00, 0x00, 0x04, 0x00, 0x00, 0x00, 0xc2, 0xec, 0xff, 0xff, 0x00, 0x00, 0x00, 0x01, 0x14, 0x00, 0x00, 0x00, 0x1c, 0x00, 0x00, 0x00, 0x1c, 0x00, 0x00, 0x00, 0x10, 0x00, 0x00, 0x00, 0x34, 0x00, 0x00, 0x00, 0x02, 0x00, 0x00, 0x00, 0xff, 0xff, 0xff, 0xff, 0x01, 0x00, 0x00, 0x00, 0xac, 0xec, 0xff, 0xff, 0x1b, 0x00, 0x00, 0x00, 0x53, 0x74, 0x61, 0x74, 0x65, 0x66, 0x75, 0x6c, 0x50, 0x61, 0x72, 0x74, 0x69, 0x74, 0x69, 0x6f, 0x6e, 0x65, 0x64, 0x43, 0x61, 0x6c, 0x6c, 0x5f, 0x31, 0x3a, 0x30, 0x00, 0x02, 0x00, 0x00, 0x00, 0x01, 0x00, 0x00, 0x00, 0x01, 0x00, 0x00, 0x00, 0x5e, 0xfc, 0xff, 0xff, 0x00, 0x00, 0x00, 0x01, 0x18, 0x00, 0x00, 0x00, 0x20, 0x00, 0x00, 0x00, 0x40, 0x00, 0x00, 0x00, 0x0f, 0x00, 0x00, 0x00, 0x00, 0x00, 0x00, 0x09, 0x58, 0x00, 0x00, 0x00, 0x02, 0x00, 0x00, 0x00, 0xff, 0xff, 0xff, 0xff, 0x01, 0x00, 0x00, 0x00, 0x9c, 0xed, 0xff, 0xff, 0x08, 0x00, 0x00, 0x00, 0x14, 0x00, 0x00, 0x00, 0x01, 0x00, 0x00, 0x00, 0x80, 0xff, 0xff, 0xff, 0xff, 0xff, 0xff, 0xff, 0x00, 0x00, 0x00, 0x00, 0x01, 0x00, 0x00, 0x00, 0x00, 0x00, 0x80, 0x3b, 0x1c, 0x00, 0x00, 0x00, 0x53, 0x74, 0x61, 0x74, 0x65, 0x66, 0x75, 0x6c, 0x50, 0x61, 0x72, 0x74, 0x69, 0x74, 0x69, 0x6f, 0x6e, 0x65, 0x64, 0x43, 0x61, 0x6c, 0x6c, 0x5f, 0x31, 0x3a, 0x30, 0x31, 0x00, 0x00, 0x00, 0x00, 0x02, 0x00, 0x00, 0x00, 0x01, 0x00, 0x00, 0x00, 0x01, 0x00, 0x00, 0x00, 0xde, 0xfc, 0xff, 0xff, 0x00, 0x00, 0x00, 0x01, 0x18, 0x00, 0x00, 0x00, 0x20, 0x00, 0x00, 0x00, 0x3c, 0x00, 0x00, 0x00, 0x0e, 0x00, 0x00, 0x00, 0x00, 0x00, 0x00, 0x09, 0x70, 0x00, 0x00, 0x00, 0x02, 0x00, 0x00, 0x00, 0xff, 0xff, 0xff, 0xff, 0x01, 0x00, 0x00, 0x00, 0x1c, 0xee, 0xff, 0xff, 0x08, 0x00, 0x00, 0x00, 0x10, 0x00, 0x00, 0x00, 0x01, 0x00, 0x00, 0x00, 0x78, 0x00, 0x00, 0x00, 0x00, 0x00, 0x00, 0x00, 0x01, 0x00, 0x00, 0x00, 0x46, 0xa5, 0x9a, 0x3d, 0x38, 0x00, 0x00, 0x00, 0x73, 0x65, 0x71, 0x75, 0x65, 0x6e, 0x74, 0x69, 0x61, 0x6c, 0x5f, 0x31, 0x2f, 0x64, 0x65, 0x6e, 0x73, 0x65, 0x5f, 0x33, 0x5f, 0x31, 0x2f, 0x4d, 0x61, 0x74, 0x4d, 0x75, 0x6c, 0x3b, 0x73, 0x65, 0x71, 0x75, 0x65, 0x6e, 0x74, 0x69, 0x61, 0x6c, 0x5f, 0x31, 0x2f, 0x64, 0x65, 0x6e, 0x73, 0x65, 0x5f, 0x33, 0x5f, 0x31, 0x2f, 0x41, 0x64, 0x64, 0x00, 0x00, 0x00, 0x00, 0x02, 0x00, 0x00, 0x00, 0x01, 0x00, 0x00, 0x00, 0x01, 0x00, 0x00, 0x00, 0x76, 0xfd, 0xff, 0xff, 0x00, 0x00, 0x00, 0x01, 0x18, 0x00, 0x00, 0x00, 0x20, 0x00, 0x00, 0x00, 0x3c, 0x00, 0x00, 0x00, 0x0d, 0x00, 0x00, 0x00, 0x00, 0x00, 0x00, 0x09, 0x90, 0x00, 0x00, 0x00, 0x02, 0x00, 0x00, 0x00, 0xff, 0xff, 0xff, 0xff, 0x10, 0x00, 0x00, 0x00, 0xb4, 0xee, 0xff, 0xff, 0x08, 0x00, 0x00, 0x00, 0x10, 0x00, 0x00, 0x00, 0x01, 0x00, 0x00, 0x00, 0x80, 0xff, 0xff, 0xff, 0xff, 0xff, 0xff, 0xff, 0x01, 0x00, 0x00, 0x00, 0x49, 0xd7, 0x40, 0x3d, 0x58, 0x00, 0x00, 0x00, 0x73, 0x65, 0x71, 0x75, 0x65, 0x6e, 0x74, 0x69, 0x61, 0x6c, 0x5f, 0x31, 0x2f, 0x64, 0x65, 0x6e, 0x73, 0x65, 0x5f, 0x32, 0x5f, 0x31, 0x2f, 0x4d, 0x61, 0x74, 0x4d, 0x75, 0x6c, 0x3b, 0x73, 0x65, 0x71, 0x75, 0x65, 0x6e, 0x74, 0x69, 0x61, 0x6c, 0x5f, 0x31, 0x2f, 0x64, 0x65, 0x6e, 0x73, 0x65, 0x5f, 0x32, 0x5f, 0x31, 0x2f, 0x52, 0x65, 0x6c, 0x75, 0x3b, 0x73, 0x65, 0x71, 0x75, 0x65, 0x6e, 0x74, 0x69, 0x61, 0x6c, 0x5f, 0x31, 0x2f, 0x64, 0x65, 0x6e, 0x73, 0x65, 0x5f, 0x32, 0x5f, 0x31, 0x2f, 0x42, 0x69, 0x61, 0x73, 0x41, 0x64, 0x64, 0x00, 0x00, 0x00, 0x00, 0x02, 0x00, 0x00, 0x00, 0x01, 0x00, 0x00, 0x00, 0x10, 0x00, 0x00, 0x00, 0x2e, 0xfe, 0xff, 0xff, 0x00, 0x00, 0x00, 0x01, 0x18, 0x00, 0x00, 0x00, 0x20, 0x00, 0x00, 0x00, 0x40, 0x00, 0x00, 0x00, 0x0c, 0x00, 0x00, 0x00, 0x00, 0x00, 0x00, 0x09, 0xf8, 0x00, 0x00, 0x00, 0x02, 0x00, 0x00, 0x00, 0xff, 0xff, 0xff, 0xff, 0x20, 0x00, 0x00, 0x00, 0x6c, 0xef, 0xff, 0xff, 0x08, 0x00, 0x00, 0x00, 0x14, 0x00, 0x00, 0x00, 0x01, 0x00, 0x00, 0x00, 0x80, 0xff, 0xff, 0xff, 0xff, 0xff, 0xff, 0xff, 0x00, 0x00, 0x00, 0x00, 0x01, 0x00, 0x00, 0x00, 0x6f, 0x0d, 0xae, 0x3c, 0xbf, 0x00, 0x00, 0x00, 0x73, 0x65, 0x71, 0x75, 0x65, 0x6e, 0x74, 0x69, 0x61, 0x6c, 0x5f, 0x31, 0x2f, 0x62, 0x61, 0x74, 0x63, 0x68, 0x5f, 0x6e, 0x6f, 0x72, 0x6d, 0x61, 0x6c, 0x69, 0x7a, 0x61, 0x74, 0x69, 0x6f, 0x6e, 0x5f, 0x31, 0x2f, 0x62, 0x61, 0x74, 0x63, 0x68, 0x6e, 0x6f, 0x72, 0x6d, 0x2f, 0x6d, 0x75, 0x6c, 0x5f, 0x31, 0x3b, 0x73, 0x65, 0x71, 0x75, 0x65, 0x6e, 0x74, 0x69, 0x61, 0x6c, 0x5f, 0x31, 0x2f, 0x62, 0x61, 0x74, 0x63, 0x68, 0x5f, 0x6e, 0x6f, 0x72, 0x6d, 0x61, 0x6c, 0x69, 0x7a, 0x61, 0x74, 0x69, 0x6f, 0x6e, 0x5f, 0x31, 0x2f, 0x62, 0x61, 0x74, 0x63, 0x68, 0x6e, 0x6f, 0x72, 0x6d, 0x2f, 0x61, 0x64, 0x64, 0x5f, 0x31, 0x3b, 0x73, 0x65, 0x71, 0x75, 0x65, 0x6e, 0x74, 0x69, 0x61, 0x6c, 0x5f, 0x31, 0x2f, 0x64, 0x65, 0x6e, 0x73, 0x65, 0x5f, 0x31, 0x5f, 0x32, 0x2f, 0x4d, 0x61, 0x74, 0x4d, 0x75, 0x6c, 0x3b, 0x73, 0x65, 0x71, 0x75, 0x65, 0x6e, 0x74, 0x69, 0x61, 0x6c, 0x5f, 0x31, 0x2f, 0x64, 0x65, 0x6e, 0x73, 0x65, 0x5f, 0x31, 0x5f, 0x32, 0x2f, 0x52, 0x65, 0x6c, 0x75, 0x3b, 0x73, 0x65, 0x71, 0x75, 0x65, 0x6e, 0x74, 0x69, 0x61, 0x6c, 0x5f, 0x31, 0x2f, 0x64, 0x65, 0x6e, 0x73, 0x65, 0x5f, 0x31, 0x5f, 0x32, 0x2f, 0x42, 0x69, 0x61, 0x73, 0x41, 0x64, 0x64, 0x31, 0x00, 0x02, 0x00, 0x00, 0x00, 0x01, 0x00, 0x00, 0x00, 0x20, 0x00, 0x00, 0x00, 0x4e, 0xff, 0xff, 0xff, 0x00, 0x00, 0x00, 0x01, 0x18, 0x00, 0x00, 0x00, 0x20, 0x00, 0x00, 0x00, 0x3c, 0x00, 0x00, 0x00, 0x0b, 0x00, 0x00, 0x00, 0x00, 0x00, 0x00, 0x09, 0x88, 0x00, 0x00, 0x00, 0x02, 0x00, 0x00, 0x00, 0xff, 0xff, 0xff, 0xff, 0x40, 0x00, 0x00, 0x00, 0x8c, 0xf0, 0xff, 0xff, 0x08, 0x00, 0x00, 0x00, 0x10, 0x00, 0x00, 0x00, 0x01, 0x00, 0x00, 0x00, 0x80, 0xff, 0xff, 0xff, 0xff, 0xff, 0xff, 0xff, 0x01, 0x00, 0x00, 0x00, 0xe5, 0xaa, 0x06, 0x3c, 0x52, 0x00, 0x00, 0x00, 0x73, 0x65, 0x71, 0x75, 0x65, 0x6e, 0x74, 0x69, 0x61, 0x6c, 0x5f, 0x31, 0x2f, 0x64, 0x65, 0x6e, 0x73, 0x65, 0x5f, 0x31, 0x2f, 0x4d, 0x61, 0x74, 0x4d, 0x75, 0x6c, 0x3b, 0x73, 0x65, 0x71, 0x75, 0x65, 0x6e, 0x74, 0x69, 0x61, 0x6c, 0x5f, 0x31, 0x2f, 0x64, 0x65, 0x6e, 0x73, 0x65, 0x5f, 0x31, 0x2f, 0x52, 0x65, 0x6c, 0x75, 0x3b, 0x73, 0x65, 0x71, 0x75, 0x65, 0x6e, 0x74, 0x69, 0x61, 0x6c, 0x5f, 0x31, 0x2f, 0x64, 0x65, 0x6e, 0x73, 0x65, 0x5f, 0x31, 0x2f, 0x42, 0x69, 0x61, 0x73, 0x41, 0x64, 0x64, 0x00, 0x00, 0x02, 0x00, 0x00, 0x00, 0x01, 0x00, 0x00, 0x00, 0x40, 0x00, 0x00, 0x00, 0x00, 0x00, 0x16, 0x00, 0x20, 0x00, 0x1c, 0x00, 0x1b, 0x00, 0x14, 0x00, 0x10, 0x00, 0x0c, 0x00, 0x00, 0x00, 0x00, 0x00, 0x08, 0x00, 0x07, 0x00, 0x16, 0x00, 0x00, 0x00, 0x00, 0x00, 0x00, 0x01, 0x18, 0x00, 0x00, 0x00, 0x20, 0x00, 0x00, 0x00, 0x40, 0x00, 0x00, 0x00, 0x0a, 0x00, 0x00, 0x00, 0x00, 0x00, 0x00, 0x09, 0x48, 0x00, 0x00, 0x00, 0x02, 0x00, 0x00, 0x00, 0xff, 0xff, 0xff, 0xff, 0x40, 0x00, 0x00, 0x00, 0x54, 0xf1, 0xff, 0xff, 0x08, 0x00, 0x00, 0x00, 0x14, 0x00, 0x00, 0x00, 0x01, 0x00, 0x00, 0x00, 0x0a, 0x00, 0x00, 0x00, 0x00, 0x00, 0x00, 0x00, 0x00, 0x00, 0x00, 0x00, 0x01, 0x00, 0x00, 0x00, 0x5c, 0x93, 0x65, 0x3c, 0x0c, 0x00, 0x00, 0x00, 0x74, 0x66, 0x6c, 0x2e, 0x71, 0x75, 0x61, 0x6e, 0x74, 0x69, 0x7a, 0x65, 0x00, 0x00, 0x00, 0x00, 0x02, 0x00, 0x00, 0x00, 0x01, 0x00, 0x00, 0x00, 0x40, 0x00, 0x00, 0x00, 0xca, 0xf1, 0xff, 0xff, 0x00, 0x00, 0x00, 0x01, 0x14, 0x00, 0x00, 0x00, 0x28, 0x03, 0x00, 0x00, 0x09, 0x00, 0x00, 0x00, 0x00, 0x00, 0x00, 0x09, 0x3c, 0x03, 0x00, 0x00, 0xb4, 0xf1, 0xff, 0xff, 0x08, 0x00, 0x00, 0x00, 0x0c, 0x02, 0x00, 0x00, 0x40, 0x00, 0x00, 0x00, 0x00, 0x00, 0x00, 0x00, 0x00, 0x00, 0x00, 0x00, 0x00, 0x00, 0x00, 0x00, 0x00, 0x00, 0x00, 0x00, 0x00, 0x00, 0x00, 0x00, 0x00, 0x00, 0x00, 0x00, 0x00, 0x00, 0x00, 0x00, 0x00, 0x00, 0x00, 0x00, 0x00, 0x00, 0x00, 0x00, 0x00, 0x00, 0x00, 0x00, 0x00, 0x00, 0x00, 0x00, 0x00, 0x00, 0x00, 0x00, 0x00, 0x00, 0x00, 0x00, 0x00, 0x00, 0x00, 0x00, 0x00, 0x00, 0x00, 0x00, 0x00, 0x00, 0x00, 0x00, 0x00, 0x00, 0x00, 0x00, 0x00, 0x00, 0x00, 0x00, 0x00, 0x00, 0x00, 0x00, 0x00, 0x00, 0x00, 0x00, 0x00, 0x00, 0x00, 0x00, 0x00, 0x00, 0x00, 0x00, 0x00, 0x00, 0x00, 0x00, 0x00, 0x00, 0x00, 0x00, 0x00, 0x00, 0x00, 0x00, 0x00, 0x00, 0x00, 0x00, 0x00, 0x00, 0x00, 0x00, 0x00, 0x00, 0x00, 0x00, 0x00, 0x00, 0x00, 0x00, 0x00, 0x00, 0x00, 0x00, 0x00, 0x00, 0x00, 0x00, 0x00, 0x00, 0x00, 0x00, 0x00, 0x00, 0x00, 0x00, 0x00, 0x00, 0x00, 0x00, 0x00, 0x00, 0x00, 0x00, 0x00, 0x00, 0x00, 0x00, 0x00, 0x00, 0x00, 0x00, 0x00, 0x00, 0x00, 0x00, 0x00, 0x00, 0x00, 0x00, 0x00, 0x00, 0x00, 0x00, 0x00, 0x00, 0x00, 0x00, 0x00, 0x00, 0x00, 0x00, 0x00, 0x00, 0x00, 0x00, 0x00, 0x00, 0x00, 0x00, 0x00, 0x00, 0x00, 0x00, 0x00, 0x00, 0x00, 0x00, 0x00, 0x00, 0x00, 0x00, 0x00, 0x00, 0x00, 0x00, 0x00, 0x00, 0x00, 0x00, 0x00, 0x00, 0x00, 0x00, 0x00, 0x00, 0x00, 0x00, 0x00, 0x00, 0x00, 0x00, 0x00, 0x00, 0x00, 0x00, 0x00, 0x00, 0x00, 0x00, 0x00, 0x00, 0x00, 0x00, 0x00, 0x00, 0x00, 0x00, 0x00, 0x00, 0x00, 0x00, 0x00, 0x00, 0x00, 0x00, 0x00, 0x00, 0x00, 0x00, 0x00, 0x00, 0x00, 0x00, 0x00, 0x00, 0x00, 0x00, 0x00, 0x00, 0x00, 0x00, 0x00, 0x00, 0x00, 0x00, 0x00, 0x00, 0x00, 0x00, 0x00, 0x00, 0x00, 0x00, 0x00, 0x00, 0x00, 0x00, 0x00, 0x00, 0x00, 0x00, 0x00, 0x00, 0x00, 0x00, 0x00, 0x00, 0x00, 0x00, 0x00, 0x00, 0x00, 0x00, 0x00, 0x00, 0x00, 0x00, 0x00, 0x00, 0x00, 0x00, 0x00, 0x00, 0x00, 0x00, 0x00, 0x00, 0x00, 0x00, 0x00, 0x00, 0x00, 0x00, 0x00, 0x00, 0x00, 0x00, 0x00, 0x00, 0x00, 0x00, 0x00, 0x00, 0x00, 0x00, 0x00, 0x00, 0x00, 0x00, 0x00, 0x00, 0x00, 0x00, 0x00, 0x00, 0x00, 0x00, 0x00, 0x00, 0x00, 0x00, 0x00, 0x00, 0x00, 0x00, 0x00, 0x00, 0x00, 0x00, 0x00, 0x00, 0x00, 0x00, 0x00, 0x00, 0x00, 0x00, 0x00, 0x00, 0x00, 0x00, 0x00, 0x00, 0x00, 0x00, 0x00, 0x00, 0x00, 0x00, 0x00, 0x00, 0x00, 0x00, 0x00, 0x00, 0x00, 0x00, 0x00, 0x00, 0x00, 0x00, 0x00, 0x00, 0x00, 0x00, 0x00, 0x00, 0x00, 0x00, 0x00, 0x00, 0x00, 0x00, 0x00, 0x00, 0x00, 0x00, 0x00, 0x00, 0x00, 0x00, 0x00, 0x00, 0x00, 0x00, 0x00, 0x00, 0x00, 0x00, 0x00, 0x00, 0x00, 0x00, 0x00, 0x00, 0x00, 0x00, 0x00, 0x00, 0x00, 0x00, 0x00, 0x00, 0x00, 0x00, 0x00, 0x00, 0x00, 0x00, 0x00, 0x00, 0x00, 0x00, 0x00, 0x00, 0x00, 0x00, 0x00, 0x00, 0x00, 0x00, 0x00, 0x00, 0x00, 0x00, 0x00, 0x00, 0x00, 0x00, 0x00, 0x00, 0x00, 0x00, 0x00, 0x00, 0x00, 0x00, 0x00, 0x00, 0x00, 0x00, 0x00, 0x00, 0x00, 0x00, 0x00, 0x00, 0x00, 0x00, 0x00, 0x00, 0x00, 0x00, 0x00, 0x00, 0x00, 0x00, 0x00, 0x00, 0x00, 0x00, 0x00, 0x00, 0x00, 0x00, 0x00, 0x00, 0x00, 0x00, 0x00, 0x00, 0x00, 0x00, 0x00, 0x00, 0x00, 0x00, 0x00, 0x00, 0x00, 0x00, 0x00, 0x00, 0x00, 0x00, 0x00, 0x00, 0x00, 0x00, 0x00, 0x00, 0x00, 0x00, 0x00, 0x00, 0x00, 0x00, 0x00, 0x00, 0x00, 0x00, 0x00, 0x00, 0x00, 0x00, 0x00, 0x00, 0x00, 0x00, 0x40, 0x00, 0x00, 0x00, 0x99, 0xe5, 0x32, 0x3b, 0xbc, 0x61, 0x61, 0x3b, 0x08, 0x36, 0x3c, 0x3b, 0x0c, 0x8d, 0x44, 0x3b, 0x9a, 0xe9, 0x4c, 0x3b, 0x33, 0xda, 0x97, 0x3b, 0xc9, 0x8a, 0x4d, 0x3b, 0x08, 0x81, 0x56, 0x3b, 0x1e, 0x04, 0x87, 0x3b, 0xe3, 0xe3, 0x4b, 0x3b, 0x8c, 0x04, 0xab, 0x3b, 0x20, 0x95, 0x51, 0x3b, 0xb5, 0xe7, 0x7f, 0x3b, 0x2e, 0xc9, 0x32, 0x3b, 0x47, 0x03, 0x43, 0x3b, 0x78, 0x5c, 0xd8, 0x3b, 0x1d, 0x53, 0x95, 0x3b, 0x91, 0xf6, 0x44, 0x3b, 0xfd, 0x4c, 0x44, 0x3b, 0x67, 0x21, 0x5b, 0x3b, 0xbd, 0x7c, 0x8e, 0x3b, 0x4c, 0x67, 0x56, 0x3b, 0xe5, 0x2b, 0x6e, 0x3b, 0xa2, 0x34, 0x58, 0x3b, 0xf8, 0x84, 0x81, 0x3b, 0x9b, 0x79, 0x77, 0x3b, 0x48, 0x6e, 0x4d, 0x3b, 0xb3, 0xbb, 0x9e, 0x3b, 0x63, 0xb8, 0x63, 0x3b, 0x8a, 0xc9, 0x53, 0x3b, 0xdc, 0x6d, 0x6e, 0x3b, 0xd0, 0x84, 0x43, 0x3b, 0xa9, 0x33, 0x40, 0x3b, 0xcf, 0x80, 0x7e, 0x3b, 0x62, 0x44, 0x86, 0x3b, 0x50, 0x18, 0x4e, 0x3b, 0x1e, 0x2e, 0x3a, 0x3b, 0xc6, 0x76, 0x4d, 0x3b, 0xff, 0x15, 0x5a, 0x3b, 0x18, 0x78, 0x50, 0x3b, 0xab, 0x28, 0x6c, 0x3b, 0x1f, 0x0c, 0x8b, 0x3b, 0x34, 0xaa, 0x78, 0x3b, 0xe9, 0xe2, 0x85, 0x3b, 0x60, 0x87, 0x61, 0x3b, 0x7d, 0xae, 0x82, 0x3b, 0x92, 0x85, 0x72, 0x3b, 0x11, 0x66, 0x9f, 0x3b, 0x24, 0x91, 0x65, 0x3b, 0x2d, 0x61, 0x8b, 0x3b, 0x82, 0x1e, 0x93, 0x3b, 0xe3, 0x01, 0x62, 0x3b, 0x5f, 0x8d, 0x93, 0x3b, 0x35, 0xa8, 0x8f, 0x3b, 0xe8, 0xed, 0x4a, 0x3b, 0xa3, 0xe7, 0x2a, 0x3b, 0x34, 0xac, 0x51, 0x3b, 0x42, 0x1c, 0x87, 0x3b, 0x60, 0xd8, 0x57, 0x3b, 0x21, 0x2b, 0x7d, 0x3b, 0xe5, 0x93, 0x68, 0x3b, 0x34, 0xab, 0x51, 0x3b, 0x37, 0xdd, 0x53, 0x3b, 0xc6, 0x3c, 0x54, 0x3b, 0x1b, 0x00, 0x00, 0x00, 0x73, 0x65, 0x71, 0x75, 0x65, 0x6e, 0x74, 0x69, 0x61, 0x6c, 0x5f, 0x31, 0x2f, 0x64, 0x65, 0x6e, 0x73, 0x65, 0x5f, 0x31, 0x2f, 0x4d, 0x61, 0x74, 0x4d, 0x75, 0x6c, 0x00, 0x02, 0x00, 0x00, 0x00, 0x40, 0x00, 0x00, 0x00, 0x40, 0x00, 0x00, 0x00, 0x2a, 0xf5, 0xff, 0xff, 0x00, 0x00, 0x00, 0x01, 0x14, 0x00, 0x00, 0x00, 0x28, 0x03, 0x00, 0x00, 0x08, 0x00, 0x00, 0x00, 0x00, 0x00, 0x00, 0x02, 0x58, 0x03, 0x00, 0x00, 0x14, 0xf5, 0xff, 0xff, 0x08, 0x00, 0x00, 0x00, 0x0c, 0x02, 0x00, 0x00, 0x40, 0x00, 0x00, 0x00, 0x00, 0x00, 0x00, 0x00, 0x00, 0x00, 0x00, 0x00, 0x00, 0x00, 0x00, 0x00, 0x00, 0x00, 0x00, 0x00, 0x00, 0x00, 0x00, 0x00, 0x00, 0x00, 0x00, 0x00, 0x00, 0x00, 0x00, 0x00, 0x00, 0x00, 0x00, 0x00, 0x00, 0x00, 0x00, 0x00, 0x00, 0x00, 0x00, 0x00, 0x00, 0x00, 0x00, 0x00, 0x00, 0x00, 0x00, 0x00, 0x00, 0x00, 0x00, 0x00, 0x00, 0x00, 0x00, 0x00, 0x00, 0x00, 0x00, 0x00, 0x00, 0x00, 0x00, 0x00, 0x00, 0x00, 0x00, 0x00, 0x00, 0x00, 0x00, 0x00, 0x00, 0x00, 0x00, 0x00, 0x00, 0x00, 0x00, 0x00, 0x00, 0x00, 0x00, 0x00, 0x00, 0x00, 0x00, 0x00, 0x00, 0x00, 0x00, 0x00, 0x00, 0x00, 0x00, 0x00, 0x00, 0x00, 0x00, 0x00, 0x00, 0x00, 0x00, 0x00, 0x00, 0x00, 0x00, 0x00, 0x00, 0x00, 0x00, 0x00, 0x00, 0x00, 0x00, 0x00, 0x00, 0x00, 0x00, 0x00, 0x00, 0x00, 0x00, 0x00, 0x00, 0x00, 0x00, 0x00, 0x00, 0x00, 0x00, 0x00, 0x00, 0x00, 0x00, 0x00, 0x00, 0x00, 0x00, 0x00, 0x00, 0x00, 0x00, 0x00, 0x00, 0x00, 0x00, 0x00, 0x00, 0x00, 0x00, 0x00, 0x00, 0x00, 0x00, 0x00, 0x00, 0x00, 0x00, 0x00, 0x00, 0x00, 0x00, 0x00, 0x00, 0x00, 0x00, 0x00, 0x00, 0x00, 0x00, 0x00, 0x00, 0x00, 0x00, 0x00, 0x00, 0x00, 0x00, 0x00, 0x00, 0x00, 0x00, 0x00, 0x00, 0x00, 0x00, 0x00, 0x00, 0x00, 0x00, 0x00, 0x00, 0x00, 0x00, 0x00, 0x00, 0x00, 0x00, 0x00, 0x00, 0x00, 0x00, 0x00, 0x00, 0x00, 0x00, 0x00, 0x00, 0x00, 0x00, 0x00, 0x00, 0x00, 0x00, 0x00, 0x00, 0x00, 0x00, 0x00, 0x00, 0x00, 0x00, 0x00, 0x00, 0x00, 0x00, 0x00, 0x00, 0x00, 0x00, 0x00, 0x00, 0x00, 0x00, 0x00, 0x00, 0x00, 0x00, 0x00, 0x00, 0x00, 0x00, 0x00, 0x00, 0x00, 0x00, 0x00, 0x00, 0x00, 0x00, 0x00, 0x00, 0x00, 0x00, 0x00, 0x00, 0x00, 0x00, 0x00, 0x00, 0x00, 0x00, 0x00, 0x00, 0x00, 0x00, 0x00, 0x00, 0x00, 0x00, 0x00, 0x00, 0x00, 0x00, 0x00, 0x00, 0x00, 0x00, 0x00, 0x00, 0x00, 0x00, 0x00, 0x00, 0x00, 0x00, 0x00, 0x00, 0x00, 0x00, 0x00, 0x00, 0x00, 0x00, 0x00, 0x00, 0x00, 0x00, 0x00, 0x00, 0x00, 0x00, 0x00, 0x00, 0x00, 0x00, 0x00, 0x00, 0x00, 0x00, 0x00, 0x00, 0x00, 0x00, 0x00, 0x00, 0x00, 0x00, 0x00, 0x00, 0x00, 0x00, 0x00, 0x00, 0x00, 0x00, 0x00, 0x00, 0x00, 0x00, 0x00, 0x00, 0x00, 0x00, 0x00, 0x00, 0x00, 0x00, 0x00, 0x00, 0x00, 0x00, 0x00, 0x00, 0x00, 0x00, 0x00, 0x00, 0x00, 0x00, 0x00, 0x00, 0x00, 0x00, 0x00, 0x00, 0x00, 0x00, 0x00, 0x00, 0x00, 0x00, 0x00, 0x00, 0x00, 0x00, 0x00, 0x00, 0x00, 0x00, 0x00, 0x00, 0x00, 0x00, 0x00, 0x00, 0x00, 0x00, 0x00, 0x00, 0x00, 0x00, 0x00, 0x00, 0x00, 0x00, 0x00, 0x00, 0x00, 0x00, 0x00, 0x00, 0x00, 0x00, 0x00, 0x00, 0x00, 0x00, 0x00, 0x00, 0x00, 0x00, 0x00, 0x00, 0x00, 0x00, 0x00, 0x00, 0x00, 0x00, 0x00, 0x00, 0x00, 0x00, 0x00, 0x00, 0x00, 0x00, 0x00, 0x00, 0x00, 0x00, 0x00, 0x00, 0x00, 0x00, 0x00, 0x00, 0x00, 0x00, 0x00, 0x00, 0x00, 0x00, 0x00, 0x00, 0x00, 0x00, 0x00, 0x00, 0x00, 0x00, 0x00, 0x00, 0x00, 0x00, 0x00, 0x00, 0x00, 0x00, 0x00, 0x00, 0x00, 0x00, 0x00, 0x00, 0x00, 0x00, 0x00, 0x00, 0x00, 0x00, 0x00, 0x00, 0x00, 0x00, 0x00, 0x00, 0x00, 0x00, 0x00, 0x00, 0x00, 0x00, 0x00, 0x00, 0x00, 0x00, 0x00, 0x00, 0x00, 0x00, 0x00, 0x00, 0x00, 0x00, 0x00, 0x00, 0x00, 0x00, 0x00, 0x00, 0x00, 0x00, 0x00, 0x00, 0x00, 0x00, 0x00, 0x00, 0x00, 0x00, 0x00, 0x00, 0x00, 0x00, 0x00, 0x00, 0x00, 0x00, 0x00, 0x00, 0x00, 0x00, 0x00, 0x40, 0x00, 0x00, 0x00, 0x5c, 0x6e, 0x20, 0x38, 0x29, 0x1e, 0x4a, 0x38, 0xac, 0xc8, 0x28, 0x38, 0x4f, 0x43, 0x30, 0x38, 0xeb, 0xc2, 0x37, 0x38, 0x98, 0x2d, 0x88, 0x38, 0x76, 0x53, 0x38, 0x38, 0xe5, 0x5c, 0x40, 0x38, 0xcd, 0x28, 0x72, 0x38, 0x37, 0xd8, 0x36, 0x38, 0x82, 0x5d, 0x99, 0x38, 0x0a, 0xf3, 0x3b, 0x38, 0x93, 0x7d, 0x65, 0x38, 0xe0, 0x54, 0x20, 0x38, 0x2f, 0xe2, 0x2e, 0x38, 0x42, 0x07, 0xc2, 0x38, 0x4d, 0xe9, 0x85, 0x38, 0xf0, 0xa1, 0x30, 0x38, 0xdd, 0x09, 0x30, 0x38, 0x04, 0x83, 0x44, 0x38, 0x34, 0x8f, 0x7f, 0x38, 0xd1, 0x45, 0x40, 0x38, 0x5d, 0x96, 0x55, 0x38, 0x89, 0xe3, 0x41, 0x38, 0xff, 0x4c, 0x68, 0x38, 0x3b, 0xee, 0x5d, 0x38, 0xe7, 0x39, 0x38, 0x38, 0x46, 0x59, 0x8e, 0x38, 0x05, 0x37, 0x4c, 0x38, 0x31, 0xed, 0x3d, 0x38, 0x85, 0xd1, 0x55, 0x38, 0x5a, 0x56, 0x2f, 0x38, 0xd9, 0x5c, 0x2c, 0x38, 0xb9, 0x3b, 0x64, 0x38, 0xea, 0xd0, 0x70, 0x38, 0x62, 0xd2, 0x38, 0x38, 0x6c, 0xf6, 0x26, 0x38, 0x84, 0x41, 0x38, 0x38, 0x36, 0x93, 0x43, 0x38, 0x6d, 0xf3, 0x3a, 0x38, 0x51, 0xc8, 0x53, 0x38, 0xc3, 0x63, 0x79, 0x38, 0x64, 0xff, 0x5e, 0x38, 0x18, 0x22, 0x70, 0x38, 0xeb, 0x3f, 0x4a, 0x38, 0x9e, 0x62, 0x6a, 0x38, 0x15, 0x7d, 0x59, 0x38, 0x0e, 0xf2, 0x8e, 0x38, 0xfa, 0xde, 0x4d, 0x38, 0x50, 0xfc, 0x79, 0x38, 0xfa, 0xee, 0x83, 0x38, 0xc8, 0xad, 0x4a, 0x38, 0x65, 0x52, 0x84, 0x38, 0x29, 0xd4, 0x80, 0x38, 0xa0, 0xfb, 0x35, 0x38, 0x95, 0x43, 0x19, 0x38, 0xbc, 0x07, 0x3c, 0x38, 0x1a, 0x54, 0x72, 0x38, 0xcd, 0x90, 0x41, 0x38, 0x4f, 0x09, 0x63, 0x38, 0x2c, 0x92, 0x50, 0x38, 0xd6, 0x06, 0x3c, 0x38, 0xd6, 0xfe, 0x3d, 0x38, 0x88, 0x54, 0x3e, 0x38, 0x36, 0x00, 0x00, 0x00, 0x73, 0x65, 0x71, 0x75, 0x65, 0x6e, 0x74, 0x69, 0x61, 0x6c, 0x5f, 0x31, 0x2f, 0x64, 0x65, 0x6e, 0x73, 0x65, 0x5f, 0x31, 0x2f, 0x52, 0x65, 0x6c, 0x75, 0x3b, 0x73, 0x65, 0x71, 0x75, 0x65, 0x6e, 0x74, 0x69, 0x61, 0x6c, 0x5f, 0x31, 0x2f, 0x64, 0x65, 0x6e, 0x73, 0x65, 0x5f, 0x31, 0x2f, 0x42, 0x69, 0x61, 0x73, 0x41, 0x64, 0x64, 0x00, 0x00, 0x01, 0x00, 0x00, 0x00, 0x40, 0x00, 0x00, 0x00, 0xa2, 0xf8, 0xff, 0xff, 0x00, 0x00, 0x00, 0x01, 0x14, 0x00, 0x00, 0x00, 0xa4, 0x01, 0x00, 0x00, 0x07, 0x00, 0x00, 0x00, 0x00, 0x00, 0x00, 0x09, 0x5c, 0x02, 0x00, 0x00, 0x8c, 0xf8, 0xff, 0xff, 0x08, 0x00, 0x00, 0x00, 0x08, 0x01, 0x00, 0x00, 0x20, 0x00, 0x00, 0x00, 0x00, 0x00, 0x00, 0x00, 0x00, 0x00, 0x00, 0x00, 0x00, 0x00, 0x00, 0x00, 0x00, 0x00, 0x00, 0x00, 0x00, 0x00, 0x00, 0x00, 0x00, 0x00, 0x00, 0x00, 0x00, 0x00, 0x00, 0x00, 0x00, 0x00, 0x00, 0x00, 0x00, 0x00, 0x00, 0x00, 0x00, 0x00, 0x00, 0x00, 0x00, 0x00, 0x00, 0x00, 0x00, 0x00, 0x00, 0x00, 0x00, 0x00, 0x00, 0x00, 0x00, 0x00, 0x00, 0x00, 0x00, 0x00, 0x00, 0x00, 0x00, 0x00, 0x00, 0x00, 0x00, 0x00, 0x00, 0x00, 0x00, 0x00, 0x00, 0x00, 0x00, 0x00, 0x00, 0x00, 0x00, 0x00, 0x00, 0x00, 0x00, 0x00, 0x00, 0x00, 0x00, 0x00, 0x00, 0x00, 0x00, 0x00, 0x00, 0x00, 0x00, 0x00, 0x00, 0x00, 0x00, 0x00, 0x00, 0x00, 0x00, 0x00, 0x00, 0x00, 0x00, 0x00, 0x00, 0x00, 0x00, 0x00, 0x00, 0x00, 0x00, 0x00, 0x00, 0x00, 0x00, 0x00, 0x00, 0x00, 0x00, 0x00, 0x00, 0x00, 0x00, 0x00, 0x00, 0x00, 0x00, 0x00, 0x00, 0x00, 0x00, 0x00, 0x00, 0x00, 0x00, 0x00, 0x00, 0x00, 0x00, 0x00, 0x00, 0x00, 0x00, 0x00, 0x00, 0x00, 0x00, 0x00, 0x00, 0x00, 0x00, 0x00, 0x00, 0x00, 0x00, 0x00, 0x00, 0x00, 0x00, 0x00, 0x00, 0x00, 0x00, 0x00, 0x00, 0x00, 0x00, 0x00, 0x00, 0x00, 0x00, 0x00, 0x00, 0x00, 0x00, 0x00, 0x00, 0x00, 0x00, 0x00, 0x00, 0x00, 0x00, 0x00, 0x00, 0x00, 0x00, 0x00, 0x00, 0x00, 0x00, 0x00, 0x00, 0x00, 0x00, 0x00, 0x00, 0x00, 0x00, 0x00, 0x00, 0x00, 0x00, 0x00, 0x00, 0x00, 0x00, 0x00, 0x00, 0x00, 0x00, 0x00, 0x00, 0x00, 0x00, 0x00, 0x00, 0x00, 0x00, 0x00, 0x00, 0x00, 0x00, 0x00, 0x00, 0x00, 0x00, 0x00, 0x00, 0x00, 0x00, 0x00, 0x00, 0x00, 0x00, 0x00, 0x00, 0x00, 0x00, 0x00, 0x00, 0x00, 0x00, 0x00, 0x00, 0x00, 0x00, 0x00, 0x00, 0x00, 0x00, 0x00, 0x00, 0x00, 0x20, 0x00, 0x00, 0x00, 0xa8, 0x7f, 0xad, 0x3b, 0x68, 0x02, 0xae, 0x3b, 0xe7, 0x11, 0x0f, 0x3c, 0x9a, 0xdd, 0xde, 0x3b, 0x4b, 0x3a, 0x90, 0x3b, 0x34, 0x7e, 0x9a, 0x3b, 0x9b, 0x51, 0xcc, 0x3b, 0x8c, 0x77, 0x2b, 0x3c, 0x42, 0x68, 0xd7, 0x3b, 0xef, 0xd2, 0x0a, 0x3c, 0x3c, 0x5f, 0xce, 0x3b, 0x6b, 0x58, 0x26, 0x3c, 0x12, 0xf5, 0xca, 0x3b, 0x0e, 0xcf, 0xd4, 0x3b, 0x1f, 0xa2, 0xc2, 0x3b, 0x17, 0x2d, 0xe4, 0x3b, 0x12, 0x52, 0x00, 0x3c, 0x37, 0xe8, 0xae, 0x3b, 0x63, 0x5c, 0xd2, 0x3b, 0xbb, 0xed, 0x14, 0x3c, 0x6f, 0xb6, 0xd9, 0x3b, 0x11, 0x63, 0x72, 0x3c, 0x50, 0xd3, 0xda, 0x3b, 0x54, 0xf0, 0x13, 0x3c, 0x1a, 0x20, 0x0d, 0x3c, 0x65, 0xed, 0xd9, 0x3b, 0xf9, 0x83, 0xd3, 0x3b, 0x10, 0x04, 0xca, 0x3b, 0x38, 0x77, 0x26, 0x3c, 0x0c, 0x6a, 0x05, 0x3c, 0x2a, 0x25, 0xd8, 0x3b, 0xb6, 0xf3, 0xb3, 0x3b, 0xbe, 0x00, 0x00, 0x00, 0x73, 0x65, 0x71, 0x75, 0x65, 0x6e, 0x74, 0x69, 0x61, 0x6c, 0x5f, 0x31, 0x2f, 0x62, 0x61, 0x74, 0x63, 0x68, 0x5f, 0x6e, 0x6f, 0x72, 0x6d, 0x61, 0x6c, 0x69, 0x7a, 0x61, 0x74, 0x69, 0x6f, 0x6e, 0x5f, 0x31, 0x2f, 0x62, 0x61, 0x74, 0x63, 0x68, 0x6e, 0x6f, 0x72, 0x6d, 0x2f, 0x6d, 0x75, 0x6c, 0x5f, 0x31, 0x3b, 0x73, 0x65, 0x71, 0x75, 0x65, 0x6e, 0x74, 0x69, 0x61, 0x6c, 0x5f, 0x31, 0x2f, 0x62, 0x61, 0x74, 0x63, 0x68, 0x5f, 0x6e, 0x6f, 0x72, 0x6d, 0x61, 0x6c, 0x69, 0x7a, 0x61, 0x74, 0x69, 0x6f, 0x6e, 0x5f, 0x31, 0x2f, 0x62, 0x61, 0x74, 0x63, 0x68, 0x6e, 0x6f, 0x72, 0x6d, 0x2f, 0x61, 0x64, 0x64, 0x5f, 0x31, 0x3b, 0x73, 0x65, 0x71, 0x75, 0x65, 0x6e, 0x74, 0x69, 0x61, 0x6c, 0x5f, 0x31, 0x2f, 0x64, 0x65, 0x6e, 0x73, 0x65, 0x5f, 0x31, 0x5f, 0x32, 0x2f, 0x4d, 0x61, 0x74, 0x4d, 0x75, 0x6c, 0x3b, 0x73, 0x65, 0x71, 0x75, 0x65, 0x6e, 0x74, 0x69, 0x61, 0x6c, 0x5f, 0x31, 0x2f, 0x64, 0x65, 0x6e, 0x73, 0x65, 0x5f, 0x31, 0x5f, 0x32, 0x2f, 0x52, 0x65, 0x6c, 0x75, 0x3b, 0x73, 0x65, 0x71, 0x75, 0x65, 0x6e, 0x74, 0x69, 0x61, 0x6c, 0x5f, 0x31, 0x2f, 0x64, 0x65, 0x6e, 0x73, 0x65, 0x5f, 0x31, 0x5f, 0x32, 0x2f, 0x42, 0x69, 0x61, 0x73, 0x41, 0x64, 0x64, 0x00, 0x00, 0x02, 0x00, 0x00, 0x00, 0x20, 0x00, 0x00, 0x00, 0x40, 0x00, 0x00, 0x00, 0x22, 0xfb, 0xff, 0xff, 0x00, 0x00, 0x00, 0x01, 0x14, 0x00, 0x00, 0x00, 0xa4, 0x01, 0x00, 0x00, 0x06, 0x00, 0x00, 0x00, 0x00, 0x00, 0x00, 0x02, 0xf8, 0x01, 0x00, 0x00, 0x0c, 0xfb, 0xff, 0xff, 0x08, 0x00, 0x00, 0x00, 0x08, 0x01, 0x00, 0x00, 0x20, 0x00, 0x00, 0x00, 0x00, 0x00, 0x00, 0x00, 0x00, 0x00, 0x00, 0x00, 0x00, 0x00, 0x00, 0x00, 0x00, 0x00, 0x00, 0x00, 0x00, 0x00, 0x00, 0x00, 0x00, 0x00, 0x00, 0x00, 0x00, 0x00, 0x00, 0x00, 0x00, 0x00, 0x00, 0x00, 0x00, 0x00, 0x00, 0x00, 0x00, 0x00, 0x00, 0x00, 0x00, 0x00, 0x00, 0x00, 0x00, 0x00, 0x00, 0x00, 0x00, 0x00, 0x00, 0x00, 0x00, 0x00, 0x00, 0x00, 0x00, 0x00, 0x00, 0x00, 0x00, 0x00, 0x00, 0x00, 0x00, 0x00, 0x00, 0x00, 0x00, 0x00, 0x00, 0x00, 0x00, 0x00, 0x00, 0x00, 0x00, 0x00, 0x00, 0x00, 0x00, 0x00, 0x00, 0x00, 0x00, 0x00, 0x00, 0x00, 0x00, 0x00, 0x00, 0x00, 0x00, 0x00, 0x00, 0x00, 0x00, 0x00, 0x00, 0x00, 0x00, 0x00, 0x00, 0x00, 0x00, 0x00, 0x00, 0x00, 0x00, 0x00, 0x00, 0x00, 0x00, 0x00, 0x00, 0x00, 0x00, 0x00, 0x00, 0x00, 0x00, 0x00, 0x00, 0x00, 0x00, 0x00, 0x00, 0x00, 0x00, 0x00, 0x00, 0x00, 0x00, 0x00, 0x00, 0x00, 0x00, 0x00, 0x00, 0x00, 0x00, 0x00, 0x00, 0x00, 0x00, 0x00, 0x00, 0x00, 0x00, 0x00, 0x00, 0x00, 0x00, 0x00, 0x00, 0x00, 0x00, 0x00, 0x00, 0x00, 0x00, 0x00, 0x00, 0x00, 0x00, 0x00, 0x00, 0x00, 0x00, 0x00, 0x00, 0x00, 0x00, 0x00, 0x00, 0x00, 0x00, 0x00, 0x00, 0x00, 0x00, 0x00, 0x00, 0x00, 0x00, 0x00, 0x00, 0x00, 0x00, 0x00, 0x00, 0x00, 0x00, 0x00, 0x00, 0x00, 0x00, 0x00, 0x00, 0x00, 0x00, 0x00, 0x00, 0x00, 0x00, 0x00, 0x00, 0x00, 0x00, 0x00, 0x00, 0x00, 0x00, 0x00, 0x00, 0x00, 0x00, 0x00, 0x00, 0x00, 0x00, 0x00, 0x00, 0x00, 0x00, 0x00, 0x00, 0x00, 0x00, 0x00, 0x00, 0x00, 0x00, 0x00, 0x00, 0x00, 0x00, 0x00, 0x00, 0x00, 0x00, 0x00, 0x00, 0x00, 0x00, 0x00, 0x00, 0x00, 0x00, 0x00, 0x00, 0x00, 0x00, 0x00, 0x00, 0x00, 0x20, 0x00, 0x00, 0x00, 0x48, 0x89, 0x36, 0x38, 0xd7, 0x12, 0x37, 0x38, 0xc2, 0x85, 0x96, 0x38, 0x8a, 0x79, 0x6a, 0x38, 0x96, 0xbd, 0x17, 0x38, 0x62, 0x8a, 0x22, 0x38, 0x38, 0xf6, 0x56, 0x38, 0x14, 0x66, 0xb4, 0x38, 0xbd, 0xa0, 0x62, 0x38, 0x2b, 0x0e, 0x92, 0x38, 0x3b, 0x1f, 0x59, 0x38, 0xa7, 0x02, 0xaf, 0x38, 0x87, 0x87, 0x55, 0x38, 0xe2, 0xe4, 0x5f, 0x38, 0x94, 0xc5, 0x4c, 0x38, 0xd8, 0x0f, 0x70, 0x38, 0x3d, 0x01, 0x87, 0x38, 0x9f, 0x04, 0x38, 0x38, 0x93, 0x51, 0x5d, 0x38, 0xb6, 0xaf, 0x9c, 0x38, 0xa8, 0x0d, 0x65, 0x38, 0x53, 0x03, 0xff, 0x38, 0x60, 0x39, 0x66, 0x38, 0x1c, 0xa5, 0x9b, 0x38, 0x06, 0x7a, 0x94, 0x38, 0x7b, 0x47, 0x65, 0x38, 0x8e, 0x88, 0x5e, 0x38, 0xf8, 0x89, 0x54, 0x38, 0x0f, 0x23, 0xaf, 0x38, 0x24, 0x5d, 0x8c, 0x38, 0x7c, 0x67, 0x63, 0x38, 0x64, 0x53, 0x3d, 0x38, 0x58, 0x00, 0x00, 0x00, 0x73, 0x65, 0x71, 0x75, 0x65, 0x6e, 0x74, 0x69, 0x61, 0x6c, 0x5f, 0x31, 0x2f, 0x64, 0x65, 0x6e, 0x73, 0x65, 0x5f, 0x31, 0x5f, 0x32, 0x2f, 0x4d, 0x61, 0x74, 0x4d, 0x75, 0x6c, 0x3b, 0x73, 0x65, 0x71, 0x75, 0x65, 0x6e, 0x74, 0x69, 0x61, 0x6c, 0x5f, 0x31, 0x2f, 0x64, 0x65, 0x6e, 0x73, 0x65, 0x5f, 0x31, 0x5f, 0x32, 0x2f, 0x52, 0x65, 0x6c, 0x75, 0x3b, 0x73, 0x65, 0x71, 0x75, 0x65, 0x6e, 0x74, 0x69, 0x61, 0x6c, 0x5f, 0x31, 0x2f, 0x64, 0x65, 0x6e, 0x73, 0x65, 0x5f, 0x31, 0x5f, 0x32, 0x2f, 0x42, 0x69, 0x61, 0x73, 0x41, 0x64, 0x64, 0x00, 0x00, 0x00, 0x00, 0x01, 0x00, 0x00, 0x00, 0x20, 0x00, 0x00, 0x00, 0x3a, 0xfd, 0xff, 0xff, 0x00, 0x00, 0x00, 0x01, 0x14, 0x00, 0x00, 0x00, 0xe4, 0x00, 0x00, 0x00, 0x05, 0x00, 0x00, 0x00, 0x00, 0x00, 0x00, 0x09, 0xfc, 0x00, 0x00, 0x00, 0x24, 0xfd, 0xff, 0xff, 0x08, 0x00, 0x00, 0x00, 0x88, 0x00, 0x00, 0x00, 0x10, 0x00, 0x00, 0x00, 0x00, 0x00, 0x00, 0x00, 0x00, 0x00, 0x00, 0x00, 0x00, 0x00, 0x00, 0x00, 0x00, 0x00, 0x00, 0x00, 0x00, 0x00, 0x00, 0x00, 0x00, 0x00, 0x00, 0x00, 0x00, 0x00, 0x00, 0x00, 0x00, 0x00, 0x00, 0x00, 0x00, 0x00, 0x00, 0x00, 0x00, 0x00, 0x00, 0x00, 0x00, 0x00, 0x00, 0x00, 0x00, 0x00, 0x00, 0x00, 0x00, 0x00, 0x00, 0x00, 0x00, 0x00, 0x00, 0x00, 0x00, 0x00, 0x00, 0x00, 0x00, 0x00, 0x00, 0x00, 0x00, 0x00, 0x00, 0x00, 0x00, 0x00, 0x00, 0x00, 0x00, 0x00, 0x00, 0x00, 0x00, 0x00, 0x00, 0x00, 0x00, 0x00, 0x00, 0x00, 0x00, 0x00, 0x00, 0x00, 0x00, 0x00, 0x00, 0x00, 0x00, 0x00, 0x00, 0x00, 0x00, 0x00, 0x00, 0x00, 0x00, 0x00, 0x00, 0x00, 0x00, 0x00, 0x00, 0x00, 0x00, 0x00, 0x00, 0x00, 0x00, 0x00, 0x00, 0x00, 0x00, 0x00, 0x00, 0x00, 0x00, 0x00, 0x00, 0x00, 0x00, 0x00, 0x00, 0x00, 0x10, 0x00, 0x00, 0x00, 0x06, 0x46, 0x66, 0x3b, 0x19, 0x36, 0x64, 0x3b, 0x39, 0xcd, 0x69, 0x3b, 0xb6, 0x79, 0x64, 0x3b, 0x64, 0x1e, 0xb4, 0x3b, 0x60, 0xbc, 0x62, 0x3b, 0xd1, 0xe9, 0x7c, 0x3b, 0x60, 0x1a, 0x68, 0x3b, 0x3e, 0xe4, 0x51, 0x3b, 0x1b, 0x75, 0x81, 0x3b, 0xa3, 0x9b, 0x6a, 0x3b, 0x68, 0xbb, 0x8a, 0x3b, 0x19, 0xe5, 0x8f, 0x3b, 0x30, 0x36, 0x5f, 0x3b, 0x77, 0x21, 0x4e, 0x3b, 0xfb, 0x71, 0x79, 0x3b, 0x1d, 0x00, 0x00, 0x00, 0x73, 0x65, 0x71, 0x75, 0x65, 0x6e, 0x74, 0x69, 0x61, 0x6c, 0x5f, 0x31, 0x2f, 0x64, 0x65, 0x6e, 0x73, 0x65, 0x5f, 0x32, 0x5f, 0x31, 0x2f, 0x4d, 0x61, 0x74, 0x4d, 0x75, 0x6c, 0x00, 0x00, 0x00, 0x02, 0x00, 0x00, 0x00, 0x10, 0x00, 0x00, 0x00, 0x20, 0x00, 0x00, 0x00, 0x5a, 0xfe, 0xff, 0xff, 0x00, 0x00, 0x00, 0x01, 0x14, 0x00, 0x00, 0x00, 0xe4, 0x00, 0x00, 0x00, 0x04, 0x00, 0x00, 0x00, 0x00, 0x00, 0x00, 0x02, 0x18, 0x01, 0x00, 0x00, 0x44, 0xfe, 0xff, 0xff, 0x08, 0x00, 0x00, 0x00, 0x88, 0x00, 0x00, 0x00, 0x10, 0x00, 0x00, 0x00, 0x00, 0x00, 0x00, 0x00, 0x00, 0x00, 0x00, 0x00, 0x00, 0x00, 0x00, 0x00, 0x00, 0x00, 0x00, 0x00, 0x00, 0x00, 0x00, 0x00, 0x00, 0x00, 0x00, 0x00, 0x00, 0x00, 0x00, 0x00, 0x00, 0x00, 0x00, 0x00, 0x00, 0x00, 0x00, 0x00, 0x00, 0x00, 0x00, 0x00, 0x00, 0x00, 0x00, 0x00, 0x00, 0x00, 0x00, 0x00, 0x00, 0x00, 0x00, 0x00, 0x00, 0x00, 0x00, 0x00, 0x00, 0x00, 0x00, 0x00, 0x00, 0x00, 0x00, 0x00, 0x00, 0x00, 0x00, 0x00, 0x00, 0x00, 0x00, 0x00, 0x00, 0x00, 0x00, 0x00, 0x00, 0x00, 0x00, 0x00, 0x00, 0x00, 0x00, 0x00, 0x00, 0x00, 0x00, 0x00, 0x00, 0x00, 0x00, 0x00, 0x00, 0x00, 0x00, 0x00, 0x00, 0x00, 0x00, 0x00, 0x00, 0x00, 0x00, 0x00, 0x00, 0x00, 0x00, 0x00, 0x00, 0x00, 0x00, 0x00, 0x00, 0x00, 0x00, 0x00, 0x00, 0x00, 0x00, 0x00, 0x00, 0x00, 0x00, 0x00, 0x00, 0x00, 0x00, 0x00, 0x10, 0x00, 0x00, 0x00, 0xad, 0x8f, 0x9c, 0x38, 0xbf, 0x28, 0x9b, 0x38, 0xc2, 0xf5, 0x9e, 0x38, 0xb7, 0x56, 0x9b, 0x38, 0x37, 0xec, 0xf4, 0x38, 0xef, 0x27, 0x9a, 0x38, 0x32, 0xf4, 0xab, 0x38, 0x1b, 0xce, 0x9d, 0x38, 0x26, 0xb4, 0x8e, 0x38, 0xc7, 0x08, 0xb0, 0x38, 0x18, 0x82, 0x9f, 0x38, 0x51, 0xa5, 0xbc, 0x38, 0x88, 0xaa, 0xc3, 0x38, 0x8b, 0xc2, 0x97, 0x38, 0x90, 0x25, 0x8c, 0x38, 0x90, 0x98, 0xa9, 0x38, 0x3a, 0x00, 0x00, 0x00, 0x73, 0x65, 0x71, 0x75, 0x65, 0x6e, 0x74, 0x69, 0x61, 0x6c, 0x5f, 0x31, 0x2f, 0x64, 0x65, 0x6e, 0x73, 0x65, 0x5f, 0x32, 0x5f, 0x31, 0x2f, 0x52, 0x65, 0x6c, 0x75, 0x3b, 0x73, 0x65, 0x71, 0x75, 0x65, 0x6e, 0x74, 0x69, 0x61, 0x6c, 0x5f, 0x31, 0x2f, 0x64, 0x65, 0x6e, 0x73, 0x65, 0x5f, 0x32, 0x5f, 0x31, 0x2f, 0x42, 0x69, 0x61, 0x73, 0x41, 0x64, 0x64, 0x00, 0x00, 0x01, 0x00, 0x00, 0x00, 0x10, 0x00, 0x00, 0x00, 0x92, 0xff, 0xff, 0xff, 0x00, 0x00, 0x00, 0x01, 0x14, 0x00, 0x00, 0x00, 0x30, 0x00, 0x00, 0x00, 0x03, 0x00, 0x00, 0x00, 0x00, 0x00, 0x00, 0x09, 0x48, 0x00, 0x00, 0x00, 0x7c, 0xff, 0xff, 0xff, 0x08, 0x00, 0x00, 0x00, 0x10, 0x00, 0x00, 0x00, 0x01, 0x00, 0x00, 0x00, 0x00, 0x00, 0x00, 0x00, 0x00, 0x00, 0x00, 0x00, 0x01, 0x00, 0x00, 0x00, 0xb3, 0x8b, 0xa6, 0x3b, 0x1d, 0x00, 0x00, 0x00, 0x73, 0x65, 0x71, 0x75, 0x65, 0x6e, 0x74, 0x69, 0x61, 0x6c, 0x5f, 0x31, 0x2f, 0x64, 0x65, 0x6e, 0x73, 0x65, 0x5f, 0x33, 0x5f, 0x31, 0x2f, 0x4d, 0x61, 0x74, 0x4d, 0x75, 0x6c, 0x00, 0x00, 0x00, 0x02, 0x00, 0x00, 0x00, 0x01, 0x00, 0x00, 0x00, 0x10, 0x00, 0x00, 0x00, 0x00, 0x00, 0x16, 0x00, 0x1c, 0x00, 0x18, 0x00, 0x17, 0x00, 0x10, 0x00, 0x0c, 0x00, 0x08, 0x00, 0x00, 0x00, 0x00, 0x00, 0x00, 0x00, 0x07, 0x00, 0x16, 0x00, 0x00, 0x00, 0x00, 0x00, 0x00, 0x01, 0x20, 0x00, 0x00, 0x00, 0x3c, 0x00, 0x00, 0x00, 0x02, 0x00, 0x00, 0x00, 0x00, 0x00, 0x00, 0x02, 0x50, 0x00, 0x00, 0x00, 0x0c, 0x00, 0x0c, 0x00, 0x00, 0x00, 0x00, 0x00, 0x08, 0x00, 0x04, 0x00, 0x0c, 0x00, 0x00, 0x00, 0x08, 0x00, 0x00, 0x00, 0x10, 0x00, 0x00, 0x00, 0x01, 0x00, 0x00, 0x00, 0x00, 0x00, 0x00, 0x00, 0x00, 0x00, 0x00, 0x00, 0x01, 0x00, 0x00, 0x00, 0xaa, 0xe9, 0x7a, 0x39, 0x1a, 0x00, 0x00, 0x00, 0x73, 0x65, 0x71, 0x75, 0x65, 0x6e, 0x74, 0x69, 0x61, 0x6c, 0x5f, 0x31, 0x2f, 0x64, 0x65, 0x6e, 0x73, 0x65, 0x5f, 0x33, 0x5f, 0x31, 0x2f, 0x41, 0x64, 0x64, 0x00, 0x00, 0x01, 0x00, 0x00, 0x00, 0x01, 0x00, 0x00, 0x00, 0x00, 0x00, 0x16, 0x00, 0x1c, 0x00, 0x18, 0x00, 0x00, 0x00, 0x14, 0x00, 0x10, 0x00, 0x0c, 0x00, 0x00, 0x00, 0x00, 0x00, 0x08, 0x00, 0x07, 0x00, 0x16, 0x00, 0x00, 0x00, 0x00, 0x00, 0x00, 0x01, 0x14, 0x00, 0x00, 0x00, 0x20, 0x00, 0x00, 0x00, 0x20, 0x00, 0x00, 0x00, 0x01, 0x00, 0x00, 0x00, 0x3c, 0x00, 0x00, 0x00, 0x02, 0x00, 0x00, 0x00, 0xff, 0xff, 0xff, 0xff, 0x40, 0x00, 0x00, 0x00, 0x04, 0x00, 0x04, 0x00, 0x04, 0x00, 0x00, 0x00, 0x1d, 0x00, 0x00, 0x00, 0x73, 0x65, 0x72, 0x76, 0x69, 0x6e, 0x67, 0x5f, 0x64, 0x65, 0x66, 0x61, 0x75, 0x6c, 0x74, 0x5f, 0x69, 0x6e, 0x70, 0x75, 0x74, 0x5f, 0x6c, 0x61, 0x79, 0x65, 0x72, 0x3a, 0x30, 0x00, 0x00, 0x00, 0x02, 0x00, 0x00, 0x00, 0x01, 0x00, 0x00, 0x00, 0x40, 0x00, 0x00, 0x00, 0x04, 0x00, 0x00, 0x00, 0x58, 0x00, 0x00, 0x00, 0x38, 0x00, 0x00, 0x00, 0x18, 0x00, 0x00, 0x00, 0x04, 0x00, 0x00, 0x00, 0xe0, 0xff, 0xff, 0xff, 0x06, 0x00, 0x00, 0x00, 0x02, 0x00, 0x00, 0x00, 0x00, 0x00, 0x00, 0x06, 0xf0, 0xff, 0xff, 0xff, 0x0e, 0x00, 0x00, 0x00, 0x02, 0x00, 0x00, 0x00, 0x00, 0x00, 0x00, 0x0e, 0x0c, 0x00, 0x10, 0x00, 0x0f, 0x00, 0x00, 0x00, 0x08, 0x00, 0x04, 0x00, 0x0c, 0x00, 0x00, 0x00, 0x09, 0x00, 0x00, 0x00, 0x04, 0x00, 0x00, 0x00, 0x00, 0x00, 0x00, 0x09, 0x0c, 0x00, 0x0c, 0x00, 0x0b, 0x00, 0x00, 0x00, 0x00, 0x00, 0x04, 0x00, 0x0c, 0x00, 0x00, 0x00, 0x72, 0x00, 0x00, 0x00, 0x00, 0x00, 0x00, 0x72
};

// ── Number of features ───────────────────────────────
// Your ESP32 must extract exactly 64 features from sensor data
#define NUM_FEATURES 64

// ── Scaler mean values ───────────────────────────────
// Used to normalize sensor data before feeding to model
// Apply: normalized = (raw_value - mean) / scale
const float scaler_mean[NUM_FEATURES] = {
  -3.209684f, 32.393940f, 2452.163841f, -99.304981f, 80.077025f, -0.148143f, 2.938319f, 32.383078f, -158.891868f, 60.575495f, 7962.375156f, -303.595458f, -16.690704f, 0.030205f, 2.609537f, 60.555071f, -23.227361f, 44.816814f, 3474.902940f, -146.141722f, 64.611985f, -0.461223f, 1.803696f, 44.801699f, -4.648892f, 257.316935f, 118432.256038f, -856.933303f, 860.139693f, 0.031001f, 4.785312f, 257.226523f, 36.030619f, 281.075246f, 162346.213909f, -820.530331f, 875.476566f, -0.033870f, 4.294416f, 280.977006f, -5.098151f, 207.396688f, 96616.741572f, -614.447751f, 648.410155f, 0.069686f, 5.284575f, 207.325137f, 266.047958f, 45.978367f, 5218.512940f, 169.305475f, 468.024735f, 1.393997f, 10.004950f, 45.962661f, 422.853974f, 335.562299f, 210614.787913f, 100.015074f, 1884.204059f, 1.584312f, 4.499143f, 335.449360f
};

// ── Scaler scale values ──────────────────────────────
const float scaler_scale[NUM_FEATURES] = {
  92.805319f, 37.453925f, 4599.446694f, 179.032809f, 158.601249f, 1.375038f, 7.811129f, 37.442688f, 111.836360f, 65.520871f, 14467.887412f, 210.240154f, 168.972417f, 1.323476f, 7.391154f, 65.498906f, 111.236222f, 38.293030f, 4979.754786f, 181.166350f, 147.236040f, 1.190517f, 6.535316f, 38.281985f, 68.037444f, 228.517507f, 228517.477101f, 958.183241f, 990.527514f, 1.694945f, 7.843265f, 228.444306f, 102.214997f, 288.691738f, 396445.200214f, 1025.798488f, 998.142627f, 1.574980f, 7.193196f, 288.598571f, 54.234115f, 231.523984f, 392916.360339f, 799.315925f, 889.176498f, 1.803955f, 9.216474f, 231.448888f, 26.499910f, 55.718065f, 10751.992099f, 84.620886f, 270.656175f, 2.211106f, 16.415565f, 55.698735f, 457.568312f, 313.069851f, 479484.244851f, 183.987404f, 1827.692151f, 1.395146f, 7.306544f, 312.979871f
};

// ── How to use in Arduino sketch ────────────────────
// 1. Copy this file into your Arduino sketch folder
// 2. At top of .ino file add: #include "model.h"
// 3. Load model:
//      tflite::MicroInterpreter* interpreter;
//      const tflite::Model* model = tflite::GetModel(fall_model_data);
// 4. Before prediction, normalize your features:
//      for(int i = 0; i < NUM_FEATURES; i++) {
//        features[i] = (features[i] - scaler_mean[i]) / scaler_scale[i];
//      }
// 5. Run inference and check output > 0.5 for fall detected

#endif // FALL_MODEL_H
